unsigned char g_model[] = {
  0x1c, 0x00, 0x00, 0x00, 0x54, 0x46, 0x4c, 0x33, 0x14, 0x00, 0x20, 0x00,
  0x1c, 0x00, 0x18, 0x00, 0x14, 0x00, 0x10, 0x00, 0x0c, 0x00, 0x00, 0x00,
  0x08, 0x00, 0x04, 0x00, 0x14, 0x00, 0x00, 0x00, 0x1c, 0x00, 0x00, 0x00,
  0x1c, 0x00, 0x00, 0x00, 0x9c, 0x00, 0x00, 0x00, 0x88, 0x33, 0x00, 0x00,
  0x98, 0x33, 0x00, 0x00, 0x7c, 0x3a, 0x00, 0x00, 0x03, 0x00, 0x00, 0x00,
  0x00, 0x00, 0x00, 0x00, 0x03, 0x00, 0x00, 0x00, 0x5c, 0x00, 0x00, 0x00,
  0x2c, 0x00, 0x00, 0x00, 0x04, 0x00, 0x00, 0x00, 0xb8, 0xff, 0xff, 0xff,
  0x0f, 0x00, 0x00, 0x00, 0x04, 0x00, 0x00, 0x00, 0x13, 0x00, 0x00, 0x00,
  0x43, 0x4f, 0x4e, 0x56, 0x45, 0x52, 0x53, 0x49, 0x4f, 0x4e, 0x5f, 0x4d,
  0x45, 0x54, 0x41, 0x44, 0x41, 0x54, 0x41, 0x00, 0xdc, 0xff, 0xff, 0xff,
  0x0e, 0x00, 0x00, 0x00, 0x04, 0x00, 0x00, 0x00, 0x13, 0x00, 0x00, 0x00,
  0x6d, 0x69, 0x6e, 0x5f, 0x72, 0x75, 0x6e, 0x74, 0x69, 0x6d, 0x65, 0x5f,
  0x76, 0x65, 0x72, 0x73, 0x69, 0x6f, 0x6e, 0x00, 0x08, 0x00, 0x0c, 0x00,
  0x08, 0x00, 0x04, 0x00, 0x08, 0x00, 0x00, 0x00, 0x0d, 0x00, 0x00, 0x00,
  0x04, 0x00, 0x00, 0x00, 0x13, 0x00, 0x00, 0x00, 0x6d, 0x69, 0x6e, 0x5f,
  0x72, 0x75, 0x6e, 0x74, 0x69, 0x6d, 0x65, 0x5f, 0x76, 0x65, 0x72, 0x73,
  0x69, 0x6f, 0x6e, 0x00, 0x10, 0x00, 0x00, 0x00, 0xe8, 0x32, 0x00, 0x00,
  0xe0, 0x32, 0x00, 0x00, 0xc0, 0x32, 0x00, 0x00, 0xa8, 0x32, 0x00, 0x00,
  0x8c, 0x32, 0x00, 0x00, 0x9c, 0x03, 0x00, 0x00, 0x6c, 0x03, 0x00, 0x00,
  0xdc, 0x00, 0x00, 0x00, 0xd4, 0x00, 0x00, 0x00, 0xcc, 0x00, 0x00, 0x00,
  0xc4, 0x00, 0x00, 0x00, 0xbc, 0x00, 0x00, 0x00, 0xb4, 0x00, 0x00, 0x00,
  0x94, 0x00, 0x00, 0x00, 0x74, 0x00, 0x00, 0x00, 0x04, 0x00, 0x00, 0x00,
  0xd2, 0xcc, 0xff, 0xff, 0x04, 0x00, 0x00, 0x00, 0x60, 0x00, 0x00, 0x00,
  0x0c, 0x00, 0x00, 0x00, 0x08, 0x00, 0x0e, 0x00, 0x08, 0x00, 0x04, 0x00,
  0x08, 0x00, 0x00, 0x00, 0x10, 0x00, 0x00, 0x00, 0x28, 0x00, 0x00, 0x00,
  0x00, 0x00, 0x06, 0x00, 0x08, 0x00, 0x04, 0x00, 0x06, 0x00, 0x00, 0x00,
  0x04, 0x00, 0x00, 0x00, 0x01, 0x00, 0x00, 0x00, 0xeb, 0x03, 0x00, 0x00,
  0x0c, 0x00, 0x18, 0x00, 0x14, 0x00, 0x10, 0x00, 0x00, 0x00, 0x04, 0x00,
  0x0c, 0x00, 0x00, 0x00, 0x3d, 0x9b, 0xd9, 0xc5, 0x45, 0xba, 0x0f, 0xfc,
  0x00, 0x00, 0x00, 0x00, 0x01, 0x00, 0x00, 0x00, 0x04, 0x00, 0x00, 0x00,
  0x06, 0x00, 0x00, 0x00, 0x32, 0x2e, 0x31, 0x38, 0x2e, 0x30, 0x00, 0x00,
  0x3e, 0xcd, 0xff, 0xff, 0x04, 0x00, 0x00, 0x00, 0x10, 0x00, 0x00, 0x00,
  0x00, 0x00, 0x00, 0x00, 0x00, 0x00, 0x00, 0x00, 0x00, 0x00, 0x00, 0x00,
  0x00, 0x00, 0x00, 0x00, 0x5a, 0xcd, 0xff, 0xff, 0x04, 0x00, 0x00, 0x00,
  0x10, 0x00, 0x00, 0x00, 0x31, 0x2e, 0x31, 0x34, 0x2e, 0x30, 0x00, 0x00,
  0x00, 0x00, 0x00, 0x00, 0x00, 0x00, 0x00, 0x00, 0xa0, 0xc7, 0xff, 0xff,
  0xa4, 0xc7, 0xff, 0xff, 0xa8, 0xc7, 0xff, 0xff, 0xac, 0xc7, 0xff, 0xff,
  0xb0, 0xc7, 0xff, 0xff, 0x8a, 0xcd, 0xff, 0xff, 0x04, 0x00, 0x00, 0x00,
  0x80, 0x02, 0x00, 0x00, 0x97, 0xd1, 0xb9, 0xe9, 0xd6, 0xff, 0x07, 0x0b,
  0x91, 0x00, 0xcd, 0x26, 0x06, 0x15, 0x0f, 0x15, 0x81, 0xf4, 0xd3, 0x10,
  0xfc, 0x1e, 0x0c, 0x0d, 0xb0, 0x18, 0xe1, 0x4e, 0x24, 0x32, 0x28, 0x25,
  0xd1, 0x40, 0x12, 0x5f, 0x37, 0x2e, 0x30, 0x29, 0xc0, 0x2c, 0x0d, 0x30,
  0x30, 0xfa, 0x33, 0x01, 0xde, 0x16, 0xfc, 0x30, 0x1d, 0x02, 0x1f, 0xc8,
  0xb3, 0xe8, 0xfe, 0xf6, 0x0e, 0xdf, 0xed, 0xb6, 0xd7, 0x04, 0x0d, 0x2a,
  0xef, 0xce, 0xfd, 0xb9, 0xd6, 0xfd, 0xf3, 0x03, 0xfa, 0xda, 0xf5, 0x9e,
  0xf6, 0x2d, 0xeb, 0x06, 0xda, 0x11, 0x97, 0xae, 0xfd, 0x31, 0xe9, 0x5d,
  0xfe, 0x3c, 0x81, 0xcc, 0xe6, 0x3b, 0xdb, 0x60, 0xfd, 0x1f, 0x9b, 0xe5,
  0xdd, 0x43, 0xeb, 0x50, 0xc7, 0x27, 0x9a, 0xe2, 0xd3, 0x3f, 0xf2, 0x73,
  0xe5, 0x37, 0xa6, 0x09, 0xf6, 0x3c, 0xd2, 0x6b, 0xcf, 0x13, 0x97, 0x01,
  0xda, 0x49, 0xe1, 0x7f, 0xdc, 0x15, 0x88, 0x09, 0xb1, 0x25, 0x01, 0x77,
  0xe4, 0xf7, 0x94, 0xca, 0xe3, 0x41, 0x1c, 0x6b, 0xef, 0x0c, 0xaa, 0xd2,
  0xeb, 0xfe, 0x1e, 0x78, 0x29, 0x06, 0x8c, 0xb1, 0x22, 0x34, 0x3a, 0x36,
  0xf7, 0x56, 0xbd, 0xfe, 0xfd, 0x23, 0x3c, 0x37, 0xef, 0x2f, 0xbe, 0xf1,
  0xc9, 0x0d, 0xfb, 0x35, 0xe1, 0x37, 0xdb, 0xf7, 0xd0, 0x1e, 0x03, 0x13,
  0x10, 0x14, 0xb1, 0xb5, 0xd8, 0xea, 0x09, 0x10, 0x26, 0x0c, 0xe1, 0xdc,
  0x99, 0x22, 0xde, 0x32, 0xf0, 0x25, 0x8d, 0xf3, 0xe8, 0x4b, 0x39, 0x0b,
  0x49, 0x7c, 0xe9, 0x19, 0xb5, 0xbf, 0x1f, 0xed, 0x3b, 0x01, 0xca, 0xdf,
  0xa4, 0x95, 0x0c, 0xcd, 0x12, 0xad, 0xc6, 0xdd, 0xbc, 0xea, 0xd4, 0x81,
  0xf9, 0xdb, 0x9f, 0xc4, 0x08, 0xda, 0xef, 0xd3, 0xfe, 0xe4, 0x1a, 0x00,
  0x15, 0xc9, 0xdc, 0xd7, 0xda, 0xf8, 0xf1, 0xf6, 0x22, 0xe9, 0xe5, 0xbf,
  0xc9, 0xd8, 0xe5, 0xe7, 0x40, 0x0d, 0xfb, 0xe1, 0xd1, 0x06, 0xd5, 0xf7,
  0x17, 0xfb, 0xb9, 0xc9, 0xb3, 0xda, 0x82, 0xbd, 0x58, 0xf7, 0xf6, 0xda,
  0xae, 0xf1, 0xa1, 0xee, 0x71, 0x42, 0x30, 0x01, 0xd9, 0x1a, 0xb5, 0x06,
  0x7f, 0x36, 0x2f, 0x14, 0xe7, 0x28, 0xbb, 0x17, 0x6c, 0x46, 0x3b, 0x34,
  0xfb, 0x1b, 0xbd, 0x10, 0x4d, 0x3b, 0x4c, 0x37, 0x0f, 0x3e, 0xd0, 0x17,
  0x27, 0x06, 0xf6, 0xf3, 0xc6, 0xe3, 0xc9, 0xeb, 0x3b, 0x0e, 0x2e, 0xf0,
  0xf4, 0xe5, 0xe0, 0xde, 0x4b, 0xfd, 0x34, 0xf2, 0x07, 0xed, 0xe5, 0xdb,
  0x5b, 0x09, 0x5c, 0xf2, 0x23, 0xdd, 0xf9, 0xd4, 0x6c, 0xf5, 0x7a, 0xf9,
  0x27, 0xd5, 0x08, 0xc2, 0x66, 0xfa, 0x76, 0xef, 0x4f, 0xdb, 0xfd, 0xbd,
  0x79, 0xf6, 0x7f, 0xeb, 0x4c, 0xd1, 0x1a, 0xac, 0x6b, 0xec, 0x7b, 0xe6,
  0x48, 0xcf, 0x1f, 0xaa, 0x5e, 0xec, 0x77, 0xe2, 0x42, 0xba, 0x21, 0xa5,
  0x46, 0xd1, 0x66, 0xc6, 0x1f, 0xc0, 0x05, 0x97, 0x19, 0xdb, 0xff, 0x10,
  0x12, 0x39, 0xf4, 0x00, 0xdd, 0x13, 0xcd, 0x4a, 0x2d, 0xd8, 0x14, 0xd1,
  0xe7, 0x03, 0xe5, 0xb5, 0xc8, 0x18, 0xd9, 0x29, 0xc1, 0xc0, 0xd2, 0xf0,
  0xc3, 0x08, 0xff, 0x2c, 0xfa, 0x1a, 0x4b, 0x0e, 0xe7, 0x2d, 0xf8, 0xef,
  0xd7, 0x7f, 0x40, 0x30, 0xe6, 0xf4, 0xf6, 0x0d, 0x1c, 0x54, 0x49, 0x31,
  0x1e, 0x07, 0xbd, 0xf2, 0x07, 0xe2, 0x12, 0x19, 0x36, 0xf4, 0x3d, 0xda,
  0xd9, 0xb5, 0xd4, 0xb2, 0xa3, 0xe0, 0xe6, 0xdc, 0xf8, 0xf8, 0xec, 0xfe,
  0xff, 0xab, 0x05, 0x03, 0x7f, 0x26, 0x25, 0xf7, 0xc9, 0xd4, 0xd4, 0xee,
  0x64, 0x48, 0x13, 0xf9, 0xe8, 0xc8, 0xbb, 0xe8, 0x51, 0x36, 0x26, 0xfc,
  0xd6, 0xd7, 0xc1, 0xd3, 0x5d, 0x43, 0x28, 0x0b, 0xde, 0xe6, 0x97, 0xd2,
  0x5a, 0x4c, 0x37, 0x17, 0xe3, 0xd8, 0xb5, 0xc2, 0x4a, 0x24, 0x32, 0x25,
  0xe4, 0xd5, 0xb1, 0xa5, 0x4f, 0x2c, 0x43, 0xf3, 0x06, 0xc8, 0xb2, 0xb4,
  0x20, 0x1a, 0x50, 0x0d, 0x15, 0xd8, 0xb6, 0xb1, 0x37, 0x1d, 0x3b, 0x11,
  0x1e, 0xe8, 0xb0, 0xa7, 0x25, 0x0e, 0x4e, 0x16, 0x22, 0xea, 0xc1, 0xc8,
  0xf6, 0xee, 0xd9, 0xdb, 0xd3, 0x0a, 0x0b, 0x61, 0xd4, 0x08, 0xb6, 0xa5,
  0xf2, 0x10, 0x3e, 0x78, 0xc8, 0xf4, 0xde, 0xb1, 0xf4, 0x0d, 0x33, 0x69,
  0xd6, 0xd3, 0xc7, 0xd3, 0xe7, 0x0f, 0x35, 0x56, 0xd8, 0xfd, 0xc8, 0x92,
  0xe9, 0x27, 0x27, 0x7f, 0xc4, 0xe3, 0xe3, 0xa9, 0x06, 0x14, 0x1d, 0x71,
  0xd7, 0xe7, 0xda, 0xbe, 0xda, 0x28, 0x1b, 0x5c, 0xd8, 0xd0, 0xf2, 0x9e,
  0xce, 0x15, 0x14, 0x54, 0xd0, 0xe0, 0xe5, 0xa7, 0xda, 0x15, 0xfd, 0x3d,
  0xd0, 0xaa, 0xd6, 0xae, 0xff, 0xdc, 0xf1, 0x3c, 0x16, 0xd0, 0xff, 0xff,
  0x04, 0x00, 0x00, 0x00, 0x20, 0x00, 0x00, 0x00, 0x1e, 0x00, 0x00, 0x00,
  0x8f, 0x02, 0x00, 0x00, 0xeb, 0x00, 0x00, 0x00, 0xa3, 0xff, 0xff, 0xff,
  0x13, 0xfe, 0xff, 0xff, 0x5a, 0x00, 0x00, 0x00, 0x41, 0xff, 0xff, 0xff,
  0xe9, 0xff, 0xff, 0xff, 0x42, 0xd0, 0xff, 0xff, 0x04, 0x00, 0x00, 0x00,
  0xe0, 0x2e, 0x00, 0x00, 0x24, 0x0b, 0xf7, 0x35, 0xe6, 0x04, 0xfd, 0xd4,
  0xf6, 0xe5, 0x29, 0xfa, 0x40, 0xf7, 0x0b, 0x0b, 0xe7, 0xca, 0xf3, 0xe6,
  0x05, 0x0f, 0x0f, 0xc5, 0xf3, 0xf0, 0xe5, 0xdc, 0xfc, 0xe8, 0xf6, 0xe6,
  0xfe, 0xdd, 0x38, 0xdd, 0xfb, 0x15, 0xf8, 0xf2, 0xf3, 0x00, 0x08, 0xc6,
  0xeb, 0x0a, 0xe0, 0xf5, 0x10, 0xd8, 0x08, 0xe3, 0x09, 0x19, 0xfd, 0xda,
  0xeb, 0xeb, 0x21, 0xed, 0x00, 0x0e, 0x13, 0x22, 0xe9, 0xe1, 0xe0, 0xdc,
  0xfa, 0xfc, 0xf0, 0x37, 0xe1, 0xcc, 0x0d, 0xca, 0xf5, 0xfe, 0xc3, 0x1e,
  0x09, 0xe8, 0xed, 0xc9, 0xfc, 0x08, 0xe5, 0xd6, 0x22, 0xdb, 0x06, 0xe6,
  0x0c, 0xfe, 0x1d, 0xf7, 0xe7, 0xf4, 0x03, 0xe2, 0xf4, 0xfb, 0xf0, 0xfe,
  0x10, 0xf9, 0x12, 0xf3, 0x05, 0xdd, 0x06, 0x0c, 0xf2, 0xf2, 0xe1, 0xf2,
  0x1a, 0x0d, 0x05, 0x09, 0x08, 0x20, 0x05, 0xdc, 0x1d, 0x22, 0x10, 0x03,
  0x08, 0xd8, 0x00, 0xd9, 0x00, 0xf6, 0x0c, 0x02, 0x3b, 0xf5, 0x0d, 0xf9,
  0xf6, 0x25, 0x21, 0x00, 0xff, 0x0d, 0xe5, 0x14, 0xfa, 0x04, 0x16, 0x20,
  0xee, 0xe5, 0xda, 0xf7, 0x08, 0x25, 0xff, 0x02, 0xf9, 0x13, 0xe0, 0xec,
  0xf9, 0x3d, 0xe5, 0x18, 0xf6, 0xf3, 0x15, 0x1b, 0xfc, 0xed, 0x42, 0xfb,
  0xcb, 0xb6, 0x1d, 0xe3, 0xde, 0x0c, 0x16, 0x2a, 0xef, 0xb8, 0x26, 0xae,
  0x09, 0xdc, 0xff, 0xe4, 0xeb, 0xe9, 0xee, 0xd3, 0x05, 0x06, 0x1a, 0xe6,
  0xe1, 0xd4, 0x16, 0xc0, 0xe7, 0xe7, 0xde, 0xfe, 0xd6, 0xed, 0xf4, 0xcc,
  0x05, 0x33, 0xd7, 0xf1, 0xf1, 0xef, 0xe6, 0x03, 0xf8, 0x27, 0xe1, 0xf3,
  0xf6, 0xe7, 0xde, 0xf1, 0xe1, 0x11, 0x01, 0x08, 0x07, 0xbf, 0x11, 0xde,
  0x0c, 0x0a, 0xf1, 0xc6, 0x0b, 0xd8, 0x18, 0xff, 0xe9, 0xec, 0xce, 0x22,
  0x1d, 0xdf, 0xdc, 0xe8, 0xdc, 0x15, 0xf9, 0xe3, 0xbf, 0x16, 0xc5, 0xb8,
  0x0c, 0x09, 0x12, 0xd8, 0xfa, 0x05, 0x33, 0xfe, 0x1d, 0xd6, 0xdd, 0xe1,
  0xd6, 0xfa, 0xcf, 0xfe, 0xf0, 0x1b, 0x06, 0x28, 0x13, 0xe4, 0xe7, 0xce,
  0x0f, 0xe1, 0xdd, 0x0d, 0x01, 0xf3, 0x0f, 0xd0, 0xf0, 0x0a, 0xed, 0x34,
  0x02, 0x1e, 0xe0, 0xed, 0x01, 0xe6, 0x13, 0x0c, 0x07, 0x02, 0x09, 0x1e,
  0xe4, 0x0a, 0x25, 0xf8, 0x03, 0x03, 0x11, 0x1f, 0x00, 0xfc, 0x22, 0xdf,
  0xe5, 0x30, 0x03, 0x14, 0xe7, 0xce, 0x0a, 0xf8, 0xe9, 0xe9, 0x26, 0xde,
  0x3d, 0x1a, 0x1f, 0x22, 0xe5, 0xc7, 0xfc, 0x24, 0xec, 0x03, 0xfe, 0x01,
  0xe4, 0xf6, 0x07, 0x0c, 0xeb, 0xc3, 0xd5, 0xe5, 0x0c, 0x04, 0xf4, 0x16,
  0xec, 0x07, 0xdb, 0x03, 0x12, 0x15, 0xe6, 0xdb, 0xea, 0x0e, 0xdf, 0xf1,
  0x27, 0xf4, 0xf2, 0x01, 0xfe, 0x07, 0x0d, 0x0c, 0xd7, 0xe4, 0x19, 0x05,
  0xe7, 0x08, 0xf3, 0x08, 0xeb, 0xbd, 0xe6, 0xd1, 0xcb, 0xeb, 0xf4, 0x19,
  0x27, 0xfc, 0x24, 0xe3, 0xdf, 0x0e, 0xd9, 0x36, 0x08, 0xeb, 0x07, 0xf5,
  0xe7, 0x02, 0xe6, 0x14, 0x01, 0xf5, 0x00, 0x15, 0xe0, 0xf6, 0xcd, 0x19,
  0xec, 0x08, 0xe8, 0xeb, 0x15, 0x0c, 0xd0, 0xf7, 0x01, 0x02, 0x39, 0x25,
  0x04, 0xef, 0x2e, 0x0d, 0xfb, 0xe6, 0x1b, 0xf2, 0xec, 0x1f, 0x29, 0xf5,
  0x34, 0xd4, 0x0e, 0xce, 0xf1, 0xfe, 0x0f, 0x23, 0xfe, 0x16, 0xe0, 0x0d,
  0x02, 0x14, 0x13, 0xe9, 0xeb, 0x29, 0x0a, 0x0a, 0x03, 0x06, 0x22, 0xed,
  0xfc, 0xf8, 0x0e, 0x10, 0x01, 0x28, 0xfa, 0xed, 0xd1, 0x13, 0x1d, 0x05,
  0x03, 0xda, 0x0a, 0x1b, 0xfc, 0x1f, 0x28, 0xfb, 0x19, 0xde, 0x16, 0xe1,
  0xe3, 0xfb, 0xed, 0xfe, 0x18, 0x22, 0x05, 0xf3, 0x09, 0xfb, 0x0d, 0xfa,
  0x14, 0x34, 0x26, 0xf2, 0x22, 0xdf, 0xe5, 0xf8, 0xda, 0xf8, 0xed, 0xdd,
  0xf0, 0xf9, 0xff, 0xd1, 0xe7, 0x15, 0xd7, 0x13, 0xe7, 0xee, 0xf6, 0xd5,
  0xe6, 0xfc, 0x01, 0x15, 0xfa, 0x1b, 0x13, 0x28, 0xf7, 0x21, 0xdf, 0xfa,
  0x06, 0x26, 0x02, 0xce, 0xee, 0xdd, 0xef, 0x32, 0xf9, 0xf0, 0xf2, 0xe5,
  0xd4, 0x11, 0x0c, 0x31, 0x14, 0xe6, 0x1a, 0xdb, 0xda, 0xf6, 0xe1, 0x04,
  0xd3, 0xf8, 0xfe, 0xd3, 0xe5, 0x26, 0xc2, 0xd0, 0xfc, 0x26, 0xd0, 0xd4,
  0xec, 0x28, 0xd7, 0xe1, 0x12, 0x21, 0x37, 0x11, 0xdc, 0x27, 0xf7, 0xe2,
  0xf7, 0x10, 0x06, 0xf0, 0xfa, 0xe7, 0x27, 0xf5, 0x1e, 0x11, 0x2a, 0x05,
  0xde, 0x30, 0xd4, 0x03, 0xf7, 0xf6, 0x34, 0xf2, 0x1e, 0xf9, 0xdc, 0x03,
  0x0b, 0x13, 0x1a, 0xf6, 0x07, 0x00, 0xdf, 0x21, 0xe5, 0x16, 0x03, 0xc9,
  0x01, 0xe7, 0xdf, 0x1c, 0xf7, 0x17, 0x26, 0x01, 0xfd, 0xce, 0x25, 0xff,
  0x1c, 0x09, 0x17, 0x09, 0x00, 0x06, 0xee, 0xfb, 0xe2, 0x06, 0x18, 0xe5,
  0xcc, 0xdd, 0x23, 0xf1, 0xd4, 0x02, 0x0f, 0x29, 0xdd, 0x0e, 0x1f, 0xee,
  0xf6, 0x20, 0xfa, 0x12, 0xd9, 0x0a, 0xec, 0xf0, 0xf9, 0x0d, 0xdb, 0x3b,
  0xe0, 0xd1, 0xd5, 0x24, 0xcf, 0xf6, 0xfc, 0xd2, 0xea, 0x0e, 0xd2, 0xee,
  0xf9, 0xf8, 0xe0, 0x0e, 0xee, 0x25, 0xfc, 0x22, 0x16, 0x04, 0xf0, 0xee,
  0xde, 0xf2, 0xd2, 0x11, 0x12, 0x04, 0xe2, 0xf2, 0x01, 0xe0, 0xe1, 0xdc,
  0x0d, 0x04, 0x34, 0x01, 0xcc, 0xf6, 0xdc, 0xf8, 0x0b, 0xf5, 0x15, 0xff,
  0xdc, 0x05, 0xb9, 0xf5, 0xfc, 0xdf, 0xda, 0xd7, 0xee, 0xea, 0x13, 0xee,
  0xf0, 0x1d, 0xc9, 0xcf, 0xe9, 0xfc, 0xfa, 0xff, 0xef, 0x1d, 0xf5, 0xe3,
  0xea, 0xef, 0xff, 0x1d, 0x20, 0x0b, 0xcf, 0x1c, 0x10, 0x33, 0xdc, 0x2e,
  0x34, 0x18, 0xf9, 0x0d, 0x0a, 0x29, 0xef, 0xf0, 0x00, 0x1a, 0xe6, 0x31,
  0xfb, 0xfe, 0xfd, 0xec, 0x08, 0x22, 0x2c, 0xee, 0x15, 0x1f, 0x1c, 0xf6,
  0x2a, 0x26, 0x23, 0x0d, 0x18, 0xee, 0xf4, 0xf2, 0x10, 0x0d, 0xfa, 0x41,
  0xf3, 0x00, 0x14, 0xde, 0xd4, 0x0c, 0xd4, 0xf5, 0xed, 0xf5, 0xf6, 0x13,
  0xe9, 0x01, 0xf0, 0xea, 0x19, 0xdc, 0x15, 0x05, 0x05, 0x08, 0x13, 0xec,
  0xf0, 0x02, 0x1c, 0xf7, 0x18, 0x28, 0xd9, 0x18, 0xef, 0x1e, 0x02, 0xec,
  0x16, 0x35, 0xe5, 0xd9, 0xf5, 0x33, 0xce, 0x05, 0xd1, 0xd1, 0xfb, 0xed,
  0x1f, 0x03, 0xd5, 0xf0, 0x06, 0x03, 0xdd, 0x20, 0xde, 0xfb, 0xed, 0x05,
  0xeb, 0x12, 0x02, 0x1c, 0xee, 0x14, 0x26, 0x0c, 0x29, 0x17, 0x25, 0x02,
  0xea, 0xf4, 0xf9, 0xdc, 0x14, 0xf9, 0xf4, 0x0c, 0xcf, 0x34, 0x04, 0xd8,
  0x06, 0xf1, 0x3b, 0xd3, 0xea, 0xf7, 0xdf, 0x0c, 0x11, 0xe4, 0x01, 0xcd,
  0xe0, 0xf5, 0xe6, 0x09, 0xe8, 0x06, 0x2d, 0xcc, 0xfd, 0x07, 0xe3, 0xf7,
  0x36, 0x0d, 0x2f, 0xf7, 0x03, 0x28, 0x0a, 0xf2, 0xee, 0x3a, 0xef, 0x02,
  0x08, 0x0e, 0x15, 0x29, 0x1c, 0x29, 0x2a, 0xe3, 0x13, 0xf1, 0xfc, 0xec,
  0x08, 0x12, 0xfd, 0x11, 0x18, 0xf3, 0x00, 0x03, 0x14, 0x03, 0xee, 0xdf,
  0x24, 0xfe, 0xe9, 0xfe, 0xfc, 0x4e, 0x11, 0x13, 0x17, 0xfe, 0x11, 0xf3,
  0x11, 0x04, 0x0c, 0x1e, 0xf5, 0x18, 0xff, 0xd6, 0x31, 0x11, 0x3f, 0xfd,
  0x08, 0x1f, 0xf7, 0xc9, 0x05, 0x1b, 0xe8, 0x15, 0xe1, 0xdb, 0x10, 0xf7,
  0xf4, 0xff, 0x15, 0x0d, 0x16, 0xfa, 0x15, 0x15, 0xd4, 0x21, 0xdc, 0x03,
  0xbb, 0x10, 0xf5, 0x03, 0xe2, 0x2e, 0x28, 0x25, 0xf2, 0x3f, 0xe6, 0x24,
  0xc9, 0x10, 0x01, 0x36, 0x17, 0xe3, 0x18, 0xe4, 0x0d, 0xeb, 0x10, 0xed,
  0xfe, 0x00, 0x20, 0xd9, 0x08, 0x10, 0x10, 0x12, 0xd1, 0xe3, 0xdb, 0x05,
  0x0f, 0x18, 0xd0, 0xeb, 0xe9, 0x2c, 0xe3, 0x09, 0xfd, 0xd8, 0x2f, 0x0a,
  0xd7, 0x00, 0xee, 0xd2, 0x25, 0x10, 0x15, 0xf7, 0xe4, 0x32, 0xe2, 0xf0,
  0x04, 0x0d, 0xf4, 0x0b, 0xe9, 0xeb, 0xe6, 0xee, 0x13, 0x0b, 0xf9, 0xdf,
  0xe5, 0x11, 0xe2, 0xf2, 0x23, 0x1c, 0x3a, 0xe7, 0x19, 0x15, 0xe0, 0xfe,
  0x07, 0x36, 0xfd, 0x16, 0x29, 0xf5, 0x14, 0xfe, 0x02, 0x1c, 0x0d, 0xfd,
  0xe5, 0x39, 0xe4, 0x02, 0x34, 0x0f, 0xfb, 0xf7, 0xfb, 0xca, 0xe1, 0xc8,
  0xf9, 0x34, 0x1f, 0x39, 0xf8, 0x0b, 0xd9, 0xc9, 0xe6, 0x2d, 0x13, 0x21,
  0x1b, 0x10, 0xde, 0xf4, 0x29, 0x0f, 0x2e, 0x25, 0x0a, 0x0c, 0x20, 0xeb,
  0xf2, 0xfe, 0xff, 0xf8, 0x0b, 0x2b, 0xff, 0x0a, 0x02, 0x10, 0x2c, 0xcf,
  0xef, 0x0f, 0xf9, 0x36, 0x20, 0x00, 0xf0, 0x23, 0x08, 0xed, 0xd9, 0xfc,
  0x05, 0x22, 0xe4, 0xee, 0xd9, 0xef, 0xfe, 0xf9, 0xe8, 0x29, 0x29, 0x12,
  0xe2, 0xd8, 0xcc, 0xdd, 0xf5, 0x0a, 0x01, 0x09, 0xde, 0x3e, 0xeb, 0x08,
  0x09, 0xf1, 0xe8, 0xf1, 0xd4, 0xee, 0xd8, 0x1c, 0xe2, 0x04, 0x20, 0x15,
  0xe1, 0x13, 0xd4, 0x01, 0x02, 0x0a, 0x0a, 0x04, 0xf4, 0x09, 0xd6, 0x15,
  0xe2, 0xef, 0x19, 0x08, 0xd8, 0xe6, 0xc7, 0xda, 0xf8, 0xf9, 0xe1, 0x05,
  0xb8, 0x0e, 0xc3, 0x0b, 0x01, 0xf8, 0x13, 0xee, 0xda, 0xfe, 0xd8, 0x16,
  0x0c, 0x0b, 0x11, 0xf9, 0xee, 0x04, 0x14, 0x01, 0x05, 0x07, 0xf1, 0xed,
  0x0b, 0xf0, 0xf4, 0x29, 0xff, 0xfe, 0x0a, 0x34, 0x44, 0xdc, 0x03, 0x13,
  0x38, 0x06, 0xe3, 0x03, 0x1c, 0xff, 0x19, 0xfe, 0x2c, 0x12, 0x00, 0x05,
  0xf6, 0x03, 0x00, 0xe2, 0x2a, 0x2b, 0xfd, 0x03, 0x17, 0xfa, 0x17, 0x06,
  0x2b, 0x3b, 0xe7, 0x3e, 0x0f, 0xf8, 0xdf, 0xf0, 0x08, 0x11, 0x0a, 0x0c,
  0xf0, 0xe3, 0x0a, 0x12, 0x2d, 0x19, 0xfb, 0xf9, 0xfd, 0x32, 0xf3, 0xd7,
  0x20, 0x28, 0xe3, 0xfc, 0x13, 0x1c, 0xfe, 0xfa, 0xfa, 0x09, 0xdd, 0x22,
  0xe0, 0xfd, 0xd6, 0x12, 0xf2, 0x22, 0xd2, 0xe8, 0xc6, 0x0e, 0x10, 0x18,
  0xe4, 0x3a, 0x13, 0xd1, 0xec, 0xf8, 0xee, 0xb9, 0xf4, 0x14, 0x11, 0x1e,
  0xe2, 0x0c, 0xe0, 0xec, 0x00, 0xe0, 0x01, 0x26, 0xf6, 0x06, 0x08, 0xf6,
  0xfb, 0x26, 0xe7, 0xf5, 0xe7, 0xd2, 0x0e, 0x1b, 0x01, 0x0c, 0xf7, 0xf1,
  0xe0, 0xff, 0x0b, 0xf6, 0x19, 0xf1, 0x2a, 0xfd, 0xd3, 0x0e, 0xf2, 0xeb,
  0x1f, 0x14, 0x04, 0x20, 0xd4, 0x2c, 0xee, 0x0a, 0x1e, 0xed, 0x03, 0xff,
  0xef, 0x0b, 0xef, 0xec, 0x23, 0x0f, 0x0a, 0xe6, 0xec, 0x16, 0xd5, 0xd8,
  0xf7, 0xde, 0xfd, 0x02, 0x13, 0xd2, 0xd2, 0x0e, 0x29, 0x1d, 0xdf, 0x2d,
  0x3c, 0xff, 0x05, 0xfa, 0x0b, 0x00, 0x05, 0x15, 0x27, 0x17, 0xd3, 0xca,
  0x00, 0x1b, 0xf1, 0x35, 0x00, 0x05, 0xdf, 0xdf, 0xec, 0x17, 0x15, 0xe1,
  0xfe, 0x0e, 0xda, 0xfb, 0x16, 0x09, 0xf8, 0x1a, 0x2f, 0xe7, 0xdf, 0x05,
  0x13, 0x17, 0x10, 0xdf, 0x16, 0xf7, 0x07, 0x10, 0x2a, 0x02, 0x15, 0x31,
  0x00, 0xdc, 0xf0, 0x07, 0x0a, 0x2a, 0xf3, 0xd6, 0xc3, 0xfc, 0x2c, 0x0e,
  0xfb, 0x09, 0xe9, 0x33, 0xee, 0xcd, 0xe9, 0x33, 0x19, 0x44, 0x13, 0xeb,
  0xfc, 0x17, 0xf5, 0xe0, 0x09, 0x2d, 0x13, 0x00, 0xc7, 0xcf, 0xd0, 0x16,
  0x0c, 0xef, 0xf8, 0xd8, 0xf1, 0x05, 0xfd, 0x01, 0x1c, 0x17, 0xf0, 0xfa,
  0xff, 0x10, 0xf5, 0xe3, 0x0f, 0xfd, 0x01, 0x0d, 0xce, 0x20, 0xd0, 0x17,
  0xfc, 0x0b, 0x28, 0xfc, 0xe3, 0x2b, 0xf1, 0xf3, 0x01, 0x07, 0x1d, 0x06,
  0xc5, 0xf4, 0xbc, 0xc7, 0x05, 0xf3, 0x01, 0x04, 0xd0, 0x04, 0xe3, 0xef,
  0xe3, 0xd4, 0x0d, 0xf3, 0xcf, 0xf6, 0xd7, 0x05, 0x24, 0xf3, 0x31, 0xf3,
  0xc7, 0xf9, 0xd7, 0x20, 0xe6, 0xe1, 0x19, 0xfe, 0x22, 0xfb, 0xfe, 0xf8,
  0x3a, 0x02, 0x10, 0x13, 0x04, 0xfe, 0x11, 0x15, 0x10, 0x10, 0x29, 0x0f,
  0x09, 0xf1, 0xf4, 0x15, 0x22, 0x0f, 0x33, 0x14, 0x23, 0xec, 0xed, 0xe3,
  0x03, 0x20, 0xd4, 0x24, 0x08, 0xf5, 0x16, 0xe0, 0x17, 0x0a, 0xee, 0x23,
  0xdf, 0x07, 0xf6, 0x1d, 0xe4, 0xf1, 0x17, 0xfb, 0xff, 0x23, 0xfd, 0xfb,
  0x23, 0xed, 0xf9, 0x24, 0xfb, 0xfa, 0x14, 0xe7, 0xfb, 0xfc, 0xf4, 0xd0,
  0xd1, 0x30, 0x2e, 0x11, 0x10, 0x06, 0x11, 0x22, 0x13, 0x19, 0xf2, 0x41,
  0xf6, 0x2d, 0xcc, 0x24, 0xb4, 0x10, 0xdd, 0xc3, 0xfb, 0x34, 0xfc, 0xd7,
  0xd0, 0xdd, 0x05, 0xc9, 0xcf, 0xe9, 0x2e, 0xe9, 0xee, 0xe9, 0xd5, 0xe4,
  0x16, 0xe3, 0x23, 0xf7, 0xc2, 0x13, 0xe8, 0xdc, 0x38, 0x16, 0x34, 0x29,
  0xe2, 0x0d, 0x25, 0xe3, 0x1d, 0x03, 0x2a, 0xe9, 0x06, 0x2e, 0xef, 0xe3,
  0xe0, 0xee, 0x12, 0x04, 0xc8, 0xf2, 0x1a, 0xf1, 0x24, 0xf9, 0xda, 0xfe,
  0xe8, 0x0d, 0xe5, 0xd0, 0x1a, 0xf9, 0x10, 0xf6, 0xdd, 0xee, 0x15, 0x32,
  0xe6, 0xfb, 0x03, 0x0e, 0xdf, 0xc6, 0xd1, 0xef, 0x26, 0x01, 0x14, 0x02,
  0x14, 0x25, 0x15, 0xf2, 0x16, 0xfa, 0x13, 0x2f, 0x20, 0x34, 0x08, 0x34,
  0x27, 0xf5, 0xe3, 0x00, 0x1f, 0x17, 0xef, 0xc7, 0x0f, 0xf3, 0x06, 0xfa,
  0xc3, 0xf9, 0x10, 0xd9, 0x16, 0x17, 0x18, 0xf2, 0x0b, 0x17, 0xe2, 0x01,
  0x0b, 0xf4, 0x0b, 0x00, 0x0d, 0xe8, 0xfa, 0x2b, 0xe1, 0xed, 0xfc, 0x10,
  0x21, 0x08, 0x0d, 0x1c, 0x15, 0x05, 0xf8, 0x19, 0xf6, 0xf8, 0x0c, 0x08,
  0x29, 0x2b, 0x1d, 0x09, 0x11, 0x14, 0x18, 0x04, 0xed, 0xf3, 0x1a, 0x1d,
  0x15, 0x09, 0x15, 0x0c, 0x39, 0x2c, 0xf5, 0xfe, 0xd8, 0x11, 0x00, 0x07,
  0x01, 0x3b, 0x23, 0xf9, 0xfc, 0xfb, 0x09, 0xc6, 0x00, 0x02, 0x0b, 0xd9,
  0xe8, 0xf0, 0x18, 0xd2, 0xea, 0x06, 0x3b, 0xdf, 0x9a, 0xf9, 0xe4, 0xfe,
  0xf8, 0x1b, 0x08, 0xdf, 0xc1, 0xf8, 0xf6, 0xfe, 0x3c, 0x13, 0xfe, 0x07,
  0xda, 0xce, 0x34, 0xd5, 0xf9, 0x18, 0x1f, 0x10, 0xba, 0x0b, 0xf0, 0xff,
  0x01, 0x04, 0x17, 0x05, 0xcd, 0x04, 0xd8, 0xf7, 0x0f, 0x15, 0x07, 0x1c,
  0xc8, 0xf5, 0x01, 0xf0, 0x12, 0xfc, 0xfe, 0xeb, 0xff, 0xf1, 0x09, 0xfd,
  0xd9, 0xdd, 0xe3, 0xf9, 0x2d, 0x14, 0xe1, 0x06, 0xf4, 0x10, 0x35, 0x02,
  0x29, 0xe3, 0x14, 0x03, 0x1f, 0xfb, 0xe7, 0x43, 0xfb, 0xfe, 0x35, 0x21,
  0x10, 0xde, 0x29, 0xf6, 0xfc, 0x30, 0xe8, 0x16, 0x2d, 0x0c, 0x0c, 0x01,
  0xfa, 0x18, 0xec, 0x09, 0x3a, 0xfa, 0x21, 0xfa, 0xd3, 0x35, 0x02, 0xeb,
  0xf4, 0x0f, 0x3a, 0x31, 0x18, 0x0c, 0x19, 0xeb, 0x1d, 0xd7, 0x23, 0xfa,
  0x11, 0xfa, 0x10, 0x0a, 0x0a, 0x16, 0x2b, 0xe4, 0x08, 0x26, 0xf2, 0x06,
  0xec, 0x00, 0x21, 0x03, 0xec, 0x2d, 0x03, 0x19, 0x2b, 0x17, 0xd5, 0x00,
  0xd2, 0x11, 0x0d, 0xda, 0xe7, 0x64, 0x02, 0x1b, 0x03, 0xfb, 0x21, 0xe0,
  0x21, 0xf7, 0xe4, 0xfa, 0xe1, 0x08, 0x1a, 0xc7, 0xf1, 0xd7, 0xf3, 0x02,
  0xd2, 0xdb, 0xf1, 0x07, 0x00, 0x1a, 0x44, 0x25, 0xbf, 0x14, 0x1d, 0xeb,
  0x0a, 0x0c, 0x09, 0x10, 0xbb, 0x2d, 0x13, 0xe0, 0x2b, 0xf5, 0xfb, 0x11,
  0xbd, 0x05, 0xea, 0xe8, 0x3a, 0xdc, 0xee, 0x21, 0xc0, 0xf4, 0xfd, 0x07,
  0x0e, 0xfe, 0xca, 0xe4, 0xd6, 0x12, 0xe4, 0xda, 0xec, 0x00, 0xf7, 0x0e,
  0xcc, 0x0d, 0xfe, 0xe1, 0x19, 0xfc, 0x3a, 0x27, 0xfb, 0x26, 0x32, 0xfd,
  0xf1, 0x0f, 0x19, 0xed, 0x20, 0x05, 0x14, 0x3d, 0x18, 0xfe, 0x15, 0xfb,
  0xee, 0x09, 0x14, 0xd9, 0x2b, 0xff, 0x2a, 0xf2, 0xd2, 0x0e, 0xf9, 0xff,
  0x17, 0xfc, 0xf5, 0x05, 0x14, 0x21, 0x0d, 0xe9, 0x26, 0xed, 0x26, 0x32,
  0xd0, 0xfe, 0xdf, 0xe6, 0xfb, 0xf8, 0xfb, 0x24, 0x12, 0x1e, 0xfd, 0x08,
  0x0f, 0xfd, 0xdf, 0x1d, 0x02, 0x2c, 0xe8, 0xe9, 0x15, 0x21, 0xe3, 0xf7,
  0xfc, 0xde, 0x0c, 0x2d, 0x1b, 0xf4, 0xd2, 0x1f, 0x05, 0xff, 0xe0, 0x0d,
  0x36, 0x3b, 0xcf, 0x00, 0xdb, 0xf0, 0xf2, 0xb8, 0xfb, 0x5c, 0x00, 0x08,
  0xd3, 0xd5, 0xe0, 0xf0, 0x2d, 0x25, 0x1b, 0xe5, 0xb9, 0xe6, 0xfa, 0xee,
  0x27, 0x06, 0x00, 0xe2, 0xbb, 0x09, 0x0e, 0xfc, 0x11, 0x0e, 0xe9, 0x08,
  0xc9, 0xcd, 0xee, 0xf1, 0xf5, 0x13, 0xfd, 0xeb, 0xd8, 0xfd, 0xf2, 0xaf,
  0x01, 0x08, 0x25, 0xf9, 0xe1, 0xff, 0xef, 0xf2, 0x21, 0x10, 0xe0, 0x08,
  0xba, 0x2f, 0xe5, 0x23, 0x00, 0xf7, 0x1b, 0xf6, 0xd9, 0x16, 0x0b, 0x17,
  0xf1, 0xf5, 0xe6, 0x04, 0xda, 0x24, 0xd8, 0xeb, 0xfe, 0x0c, 0x10, 0xf8,
  0xf5, 0xf4, 0x16, 0x01, 0x10, 0x04, 0x31, 0x18, 0x12, 0xfd, 0x1b, 0x18,
  0x0a, 0x0b, 0xf8, 0x09, 0xec, 0x01, 0xe7, 0x00, 0xf8, 0xe6, 0x04, 0x1e,
  0x07, 0x39, 0x18, 0x13, 0x2e, 0x00, 0x01, 0xfe, 0x00, 0x12, 0xf5, 0xfd,
  0x30, 0x0a, 0x31, 0x23, 0xcc, 0x14, 0xd4, 0xe3, 0xe4, 0xce, 0xf9, 0x0a,
  0x07, 0x1d, 0x0b, 0xf8, 0xfc, 0x03, 0xf8, 0xf1, 0xf3, 0x0d, 0xfd, 0xe4,
  0xf6, 0x00, 0xf6, 0x21, 0xf3, 0xfb, 0x23, 0x3a, 0xef, 0x0d, 0x16, 0xfa,
  0xe9, 0xf0, 0x1b, 0x4d, 0x0f, 0x1e, 0x0e, 0x12, 0xd8, 0x26, 0xff, 0xdf,
  0x39, 0x50, 0xfb, 0xe0, 0xcb, 0xf4, 0xc0, 0xd3, 0x22, 0x10, 0x01, 0xf4,
  0xb3, 0xfa, 0xfa, 0xc7, 0x25, 0x16, 0x17, 0xe6, 0xc6, 0xe1, 0xf7, 0xc7,
  0x0e, 0x1c, 0x0b, 0x01, 0xcc, 0xfe, 0x07, 0x08, 0x00, 0x25, 0x0a, 0xf5,
  0xda, 0x16, 0xd4, 0xd4, 0x33, 0x16, 0x22, 0xec, 0xc9, 0xfb, 0xe0, 0x0b,
  0x21, 0xf3, 0x07, 0x15, 0xb8, 0x24, 0xbe, 0xdb, 0x24, 0xf4, 0xf2, 0xff,
  0xae, 0x0f, 0x01, 0xe5, 0x1f, 0xf8, 0x01, 0x1b, 0xd5, 0xfe, 0xf8, 0x0f,
  0x0a, 0xf8, 0x1b, 0x29, 0x1d, 0xfd, 0x09, 0x39, 0x06, 0xf0, 0xf7, 0x0d,
  0x0c, 0x0e, 0x1d, 0x2b, 0x1b, 0xda, 0xe4, 0x1f, 0xf0, 0xe0, 0xeb, 0xe9,
  0x0a, 0xca, 0xf8, 0x11, 0xca, 0xe3, 0x0f, 0xbe, 0xe9, 0xd2, 0x2b, 0x2a,
  0x19, 0x1a, 0x10, 0x01, 0x26, 0xfb, 0x19, 0xef, 0xf2, 0xf0, 0xc6, 0xd1,
  0x19, 0xf8, 0x17, 0xee, 0x03, 0x16, 0xe9, 0x07, 0xf7, 0xec, 0xed, 0x24,
  0x12, 0x33, 0xf1, 0xe6, 0x1d, 0x4e, 0xdd, 0x3c, 0xec, 0x12, 0x29, 0x46,
  0x0c, 0x04, 0x0a, 0x14, 0xcc, 0xfa, 0x2a, 0x15, 0x21, 0x2d, 0x10, 0x01,
  0xba, 0xff, 0xd4, 0xcf, 0x43, 0x58, 0xd7, 0xd5, 0xbd, 0x2b, 0x16, 0xd3,
  0x0e, 0x2e, 0xd7, 0x13, 0xc7, 0x06, 0xf8, 0x12, 0xe7, 0x1b, 0x06, 0x22,
  0xb4, 0x02, 0x1e, 0x10, 0xf8, 0x1a, 0xe9, 0xeb, 0xd3, 0x01, 0xe1, 0xe4,
  0xf4, 0x24, 0xf0, 0x1a, 0xcc, 0xeb, 0x0b, 0xec, 0x30, 0x20, 0xcb, 0x0b,
  0xaa, 0x1b, 0xc1, 0xe8, 0xec, 0xe5, 0xd6, 0xf8, 0x9a, 0x13, 0x21, 0x05,
  0x22, 0xf4, 0x0e, 0x06, 0xe2, 0x39, 0xf9, 0xc3, 0x0c, 0xec, 0xe6, 0x0c,
  0xef, 0x11, 0xf0, 0xf1, 0x14, 0x18, 0x02, 0xe5, 0x05, 0x18, 0x1b, 0xe0,
  0xe7, 0xf1, 0x05, 0x24, 0x0b, 0xfa, 0x21, 0x03, 0x15, 0xde, 0x2f, 0x20,
  0x09, 0x25, 0x05, 0x04, 0xff, 0xd9, 0x0d, 0x33, 0x0b, 0x1b, 0xd2, 0xcf,
  0x20, 0x00, 0x13, 0x13, 0x04, 0x47, 0xd6, 0xf8, 0xf5, 0xf8, 0x28, 0x3e,
  0x33, 0x27, 0xd9, 0x0d, 0xe3, 0x00, 0xe5, 0x2c, 0x24, 0x1f, 0xe9, 0xe8,
  0x16, 0xf0, 0xe3, 0x19, 0x05, 0x2a, 0xe1, 0xd6, 0x12, 0x50, 0xef, 0x01,
  0xfd, 0x14, 0x2a, 0x09, 0x24, 0x2e, 0xeb, 0x13, 0x00, 0xf5, 0x09, 0x2f,
  0x37, 0x2d, 0x09, 0xfb, 0xbe, 0x09, 0xf2, 0xef, 0x3f, 0x28, 0x02, 0xf3,
  0xc1, 0x15, 0xcd, 0xff, 0x28, 0x48, 0x05, 0x2c, 0xef, 0x06, 0x10, 0xb4,
  0xde, 0x1d, 0xfa, 0x04, 0xc6, 0x28, 0xf4, 0xdd, 0xfe, 0xfd, 0xff, 0x10,
  0xe6, 0xd8, 0x1d, 0xf0, 0x24, 0x22, 0x21, 0xe5, 0xec, 0x03, 0xd0, 0xd4,
  0x14, 0x1c, 0xfd, 0xf0, 0xd1, 0xf3, 0xef, 0xbd, 0x2e, 0xf6, 0xe5, 0xcd,
  0xac, 0xca, 0xf5, 0xe6, 0x40, 0xfd, 0x27, 0x00, 0xe8, 0xfc, 0xf5, 0x08,
  0xf4, 0xf1, 0x20, 0xc9, 0xeb, 0x31, 0xbc, 0xda, 0x25, 0xfd, 0xf1, 0x37,
  0xf2, 0x08, 0xea, 0xdb, 0x2a, 0xe9, 0x0a, 0x1d, 0x19, 0x30, 0x0c, 0x0e,
  0xfd, 0xf4, 0xe6, 0x3f, 0xfa, 0x0e, 0x2a, 0xe5, 0x31, 0xe8, 0x1c, 0x11,
  0xf1, 0xe5, 0xe5, 0xee, 0x28, 0x00, 0x1a, 0xf9, 0x0e, 0x15, 0x1f, 0x02,
  0xfb, 0xee, 0x01, 0x16, 0xfa, 0xe2, 0xf0, 0xdb, 0xe9, 0xfa, 0x28, 0x20,
  0x1a, 0x1d, 0x0c, 0xf6, 0xf7, 0xd9, 0x02, 0x0f, 0x00, 0x0c, 0xfe, 0xf9,
  0x26, 0x65, 0x26, 0xf3, 0xfb, 0x21, 0xe8, 0x2e, 0x24, 0x37, 0x01, 0x11,
  0x08, 0xfc, 0x14, 0xef, 0x19, 0x3b, 0xe4, 0x0b, 0xd0, 0x1c, 0xd8, 0xc5,
  0x07, 0x50, 0xf6, 0xe2, 0xdb, 0x3c, 0x16, 0xd3, 0x23, 0x2f, 0x12, 0xea,
  0xc2, 0x1f, 0x06, 0xb2, 0x06, 0xf3, 0xe6, 0xe8, 0xaf, 0x12, 0xf9, 0x13,
  0x18, 0x26, 0xf9, 0x08, 0xc1, 0x09, 0xed, 0xda, 0xda, 0x30, 0x02, 0x12,
  0xd1, 0xdb, 0xe3, 0xd0, 0xff, 0x18, 0x27, 0x03, 0xda, 0xed, 0x0e, 0xc7,
  0x25, 0x0b, 0x0d, 0x10, 0xbb, 0xfb, 0xb6, 0xfd, 0x1d, 0xee, 0x2c, 0xe5,
  0xca, 0xf5, 0xf6, 0x0f, 0xfc, 0x19, 0x0e, 0xef, 0xc4, 0x08, 0xd3, 0xf9,
  0x1d, 0x0a, 0xcc, 0x24, 0x12, 0x3a, 0xfb, 0xf7, 0x02, 0xf6, 0x09, 0x23,
  0xf5, 0xf7, 0x14, 0xf6, 0x2b, 0xf7, 0x21, 0x03, 0xd6, 0x20, 0x11, 0x0a,
  0x0c, 0x0d, 0x13, 0x1b, 0xf1, 0xf0, 0xed, 0xb0, 0x0e, 0xf9, 0x1c, 0x39,
  0xd5, 0xf8, 0xf8, 0xe8, 0x10, 0xfd, 0xf4, 0x32, 0xd4, 0x2b, 0xc3, 0x09,
  0xe6, 0xe8, 0xe0, 0x27, 0x20, 0xd0, 0xff, 0x07, 0xf6, 0xf9, 0xfb, 0xd8,
  0x0d, 0x15, 0x10, 0xfd, 0xf7, 0x2f, 0x19, 0x13, 0xe5, 0xf2, 0xdf, 0x1f,
  0x18, 0x3b, 0xf0, 0x07, 0x15, 0x12, 0x21, 0x3c, 0x2a, 0x4b, 0x16, 0xec,
  0xf3, 0x11, 0xdd, 0x10, 0x26, 0x4b, 0xf4, 0x12, 0xa2, 0xee, 0x02, 0xcd,
  0x18, 0x31, 0xea, 0xe4, 0xb8, 0x12, 0x06, 0xf4, 0xf9, 0x06, 0x1f, 0xfa,
  0xc1, 0x26, 0xcb, 0xdc, 0x14, 0x2a, 0x00, 0x14, 0xe4, 0x0b, 0x05, 0xfe,
  0x14, 0x23, 0x05, 0x22, 0xe2, 0x12, 0x18, 0xd2, 0x13, 0x0f, 0x19, 0x06,
  0xdf, 0x09, 0xb4, 0xd3, 0x1d, 0x23, 0x03, 0xdd, 0xde, 0x2a, 0xbc, 0xdb,
  0x15, 0xe2, 0x11, 0xdf, 0xa6, 0x28, 0xfe, 0xf0, 0xff, 0xf8, 0xe6, 0x1b,
  0xeb, 0x07, 0x0b, 0x1a, 0x2b, 0xe6, 0x0d, 0xf7, 0x24, 0xe8, 0x03, 0xed,
  0x0d, 0x03, 0xee, 0x16, 0x1f, 0x26, 0x13, 0xe5, 0x0f, 0xf5, 0x19, 0x25,
  0xf4, 0x1d, 0x13, 0xd5, 0xf0, 0x01, 0x2b, 0x11, 0xf9, 0x04, 0x13, 0xdd,
  0x01, 0x14, 0xf8, 0xfa, 0x09, 0xf5, 0xd2, 0x09, 0x0d, 0xd9, 0x0f, 0x08,
  0xe1, 0x2f, 0x26, 0xf7, 0xc5, 0xe7, 0xd0, 0x2c, 0x11, 0xfb, 0x1f, 0xd7,
  0xfc, 0x08, 0x08, 0xed, 0xfe, 0x10, 0xfb, 0x12, 0xfe, 0x1d, 0xf7, 0xea,
  0xf7, 0x0e, 0x08, 0x0a, 0x45, 0x31, 0xec, 0xec, 0xe2, 0x1d, 0x20, 0x26,
  0x38, 0x43, 0xec, 0xe9, 0xcc, 0x01, 0xef, 0xe9, 0x44, 0x54, 0xfe, 0x0d,
  0xae, 0xf7, 0xdb, 0xa9, 0x2d, 0x50, 0xef, 0x00, 0xcc, 0xfb, 0x00, 0x05,
  0x11, 0x16, 0xda, 0xdc, 0xd9, 0x3f, 0xdb, 0x05, 0x04, 0x30, 0x13, 0x26,
  0x03, 0xff, 0xfa, 0xc8, 0x1f, 0x28, 0x02, 0x01, 0xf9, 0x32, 0xe8, 0xcd,
  0xfe, 0x3c, 0xfb, 0x1c, 0xb9, 0xeb, 0xc6, 0x01, 0x09, 0x1e, 0x0b, 0x2c,
  0xf2, 0x28, 0x07, 0xed, 0x22, 0xd9, 0x39, 0xf5, 0xcb, 0xf3, 0xea, 0xb7,
  0xfa, 0x18, 0x1d, 0xf4, 0xdb, 0x06, 0xd8, 0xdd, 0x19, 0x01, 0xe7, 0x07,
  0xed, 0xff, 0x22, 0xd2, 0x24, 0x0e, 0x11, 0x26, 0x12, 0xf9, 0xf3, 0x1b,
  0x31, 0x09, 0x34, 0xf0, 0xed, 0x09, 0xdc, 0x1c, 0xf5, 0xfc, 0xf3, 0x1b,
  0xbd, 0x00, 0xe3, 0xe8, 0x0b, 0x09, 0xe5, 0x01, 0xfb, 0x05, 0x0d, 0xeb,
  0xd1, 0xeb, 0x01, 0xf5, 0x10, 0x0f, 0xd9, 0x09, 0x02, 0xf6, 0xec, 0x2e,
  0xfe, 0x2b, 0xfc, 0x1a, 0xe1, 0xfe, 0xed, 0x26, 0x11, 0xf2, 0x1d, 0x09,
  0x1f, 0x65, 0x2c, 0x10, 0xfa, 0xed, 0xdb, 0x28, 0x12, 0x48, 0x1c, 0xd5,
  0xed, 0x02, 0x1f, 0x22, 0x3e, 0x33, 0xfa, 0xf5, 0xee, 0x24, 0xeb, 0x14,
  0x13, 0x41, 0x27, 0xe3, 0xac, 0xe8, 0x14, 0xd3, 0x4f, 0x2f, 0x0b, 0x29,
  0xfa, 0x34, 0xd9, 0xed, 0x16, 0x40, 0xd6, 0xef, 0xc6, 0x01, 0xf1, 0x0b,
  0xf8, 0x35, 0xf7, 0xcf, 0xc3, 0xfe, 0xd8, 0x15, 0x1c, 0x3f, 0xf1, 0x0f,
  0xcf, 0x0b, 0x04, 0xc4, 0xf3, 0x2e, 0xfe, 0x12, 0xcc, 0x27, 0xee, 0x05,
  0x36, 0x1f, 0x24, 0xf0, 0xcf, 0xdc, 0x09, 0xba, 0xff, 0xdf, 0xf2, 0x02,
  0xfd, 0xf3, 0xd3, 0xd3, 0x12, 0x0e, 0xfa, 0xdb, 0xf4, 0x29, 0xe3, 0xff,
  0x02, 0x11, 0xe4, 0x35, 0x14, 0x19, 0x02, 0xfd, 0x13, 0xf8, 0x15, 0x01,
  0xf7, 0xfe, 0x12, 0xe1, 0x0a, 0xea, 0x07, 0x26, 0xcf, 0x39, 0x13, 0x25,
  0x00, 0xf1, 0x2e, 0x21, 0xfe, 0x1a, 0xea, 0x15, 0x13, 0xf4, 0xdd, 0x0c,
  0xe0, 0x19, 0xee, 0xda, 0x06, 0xfa, 0x1c, 0x33, 0x0e, 0xd2, 0xfb, 0xd2,
  0x06, 0xce, 0xf3, 0x21, 0x31, 0x1f, 0x1f, 0xdf, 0xfe, 0x02, 0x16, 0x1c,
  0x28, 0xe7, 0x09, 0x0d, 0xf6, 0x5b, 0xfd, 0x15, 0xec, 0xdb, 0x1b, 0x1e,
  0x3d, 0x37, 0x2e, 0x07, 0x13, 0x16, 0x14, 0x1b, 0x31, 0x73, 0x02, 0xf4,
  0xb5, 0xfb, 0xdf, 0x05, 0x09, 0x77, 0xf1, 0x02, 0xa8, 0xef, 0xfb, 0xc0,
  0x2c, 0x61, 0xf6, 0x00, 0x92, 0x01, 0x1f, 0xfa, 0x0e, 0x2e, 0x0f, 0xd3,
  0xb0, 0xeb, 0x12, 0xd3, 0xfe, 0x2f, 0x18, 0xf1, 0xf4, 0xf0, 0xca, 0x0f,
  0xd8, 0x1d, 0xf0, 0xd1, 0xe6, 0x10, 0xe9, 0xcc, 0x2d, 0x2a, 0xfa, 0xdd,
  0xeb, 0xe3, 0xe1, 0xc7, 0xf3, 0x25, 0xd7, 0xef, 0xdc, 0xdd, 0x01, 0xf5,
  0xf9, 0x0d, 0xfb, 0xfd, 0xcc, 0x11, 0xfb, 0xd4, 0x1b, 0xe1, 0x0f, 0xf8,
  0xf1, 0x1f, 0xfa, 0xbe, 0x06, 0x0e, 0x19, 0x09, 0xef, 0xe1, 0x16, 0xca,
  0x1c, 0x24, 0xf4, 0x18, 0xf0, 0xe8, 0xef, 0xd6, 0xdc, 0xe8, 0x14, 0xdd,
  0xe4, 0x02, 0x21, 0xf4, 0x08, 0xfb, 0xdb, 0x13, 0xfa, 0x2a, 0x00, 0xd0,
  0xe7, 0xf8, 0xe8, 0xf1, 0xc5, 0x03, 0xe0, 0x08, 0x02, 0xf3, 0xef, 0x0b,
  0xe7, 0x05, 0xf5, 0x20, 0xde, 0x11, 0x27, 0xde, 0x05, 0xed, 0x19, 0x05,
  0xc4, 0xce, 0xf2, 0xea, 0x0c, 0x06, 0x22, 0xfc, 0x1e, 0x72, 0x30, 0x16,
  0x1a, 0xfd, 0x14, 0x3e, 0x2a, 0x38, 0x17, 0xf9, 0xd8, 0xef, 0xf7, 0x4b,
  0x45, 0x7a, 0x06, 0x08, 0xe1, 0xe7, 0xe1, 0xc6, 0x20, 0x44, 0xf8, 0x20,
  0xcb, 0x29, 0xe8, 0xf7, 0x04, 0x6a, 0x11, 0x19, 0xe8, 0xf9, 0x07, 0x09,
  0xf6, 0x2f, 0x07, 0x1b, 0xd2, 0xf7, 0xfe, 0x1b, 0x10, 0x2b, 0x06, 0xf6,
  0xd8, 0xf4, 0x0f, 0xe9, 0x2b, 0x24, 0x07, 0x01, 0xab, 0x20, 0xbb, 0xe6,
  0xfe, 0x4a, 0xed, 0x2e, 0xc9, 0xd3, 0x12, 0x10, 0x1f, 0x1a, 0xe4, 0xef,
  0xdd, 0x08, 0xe6, 0xf2, 0x08, 0x03, 0xe6, 0xea, 0x15, 0x11, 0xe6, 0xf7,
  0xe0, 0x14, 0xde, 0x0c, 0xdb, 0x17, 0x0f, 0x07, 0xec, 0x23, 0x01, 0x26,
  0x01, 0xfa, 0xe1, 0xf8, 0x01, 0x19, 0xfb, 0x2b, 0xda, 0x14, 0x2d, 0x12,
  0xfb, 0x06, 0xf7, 0x2b, 0x00, 0xf9, 0xe3, 0xd3, 0xed, 0xe0, 0xe3, 0xe5,
  0xf8, 0x37, 0xde, 0x02, 0x02, 0xfc, 0xda, 0x18, 0xe5, 0x06, 0xfc, 0xdb,
  0xdc, 0xe7, 0xfb, 0x29, 0x10, 0xf9, 0x14, 0xed, 0xeb, 0xd8, 0xfd, 0x0b,
  0x04, 0xe1, 0xf1, 0x14, 0xd4, 0xe4, 0xfd, 0xea, 0xf5, 0xf0, 0xf3, 0xf7,
  0x43, 0x6e, 0xed, 0xef, 0x2b, 0xe5, 0x0e, 0x35, 0x26, 0x7f, 0x36, 0x2d,
  0x30, 0x1c, 0xfd, 0x3f, 0x4f, 0x62, 0x3a, 0x11, 0xe0, 0x3a, 0xdb, 0x15,
  0x48, 0x79, 0x39, 0xe5, 0x98, 0x2e, 0xd6, 0x0a, 0x0f, 0x5f, 0x16, 0x23,
  0xd5, 0xf8, 0x13, 0x12, 0x1a, 0x23, 0x01, 0x21, 0xe3, 0x36, 0x03, 0xc8,
  0x0c, 0x3a, 0x17, 0x0f, 0x00, 0x17, 0xe9, 0x16, 0x20, 0x2e, 0x0a, 0x26,
  0xde, 0x3f, 0x29, 0x07, 0x00, 0x22, 0x37, 0x10, 0x0f, 0xfa, 0x1f, 0xca,
  0xfb, 0x0e, 0x2d, 0x1a, 0xde, 0xfc, 0xd8, 0xe8, 0xf8, 0x06, 0xe3, 0xde,
  0xe0, 0x10, 0x0f, 0x27, 0x0d, 0x19, 0xe9, 0x36, 0xe1, 0xe9, 0xec, 0xf5,
  0x03, 0x1e, 0x13, 0x1a, 0x1b, 0xf5, 0xdb, 0x01, 0x1d, 0xf5, 0x15, 0xfc,
  0x13, 0xd9, 0xfb, 0xdf, 0x20, 0xeb, 0xf5, 0xfd, 0xe4, 0xea, 0xe6, 0xdc,
  0xe5, 0x02, 0xf9, 0xc9, 0xf5, 0x06, 0xdd, 0xfa, 0x03, 0xee, 0x1f, 0x27,
  0xeb, 0xdf, 0x12, 0xe4, 0xeb, 0xf4, 0xd1, 0xfd, 0x0f, 0x1d, 0x05, 0xdb,
  0xe3, 0xf4, 0xbf, 0x15, 0x0a, 0xff, 0x37, 0x01, 0xe7, 0xdf, 0x0e, 0x10,
  0x33, 0x13, 0x02, 0xe4, 0x53, 0x12, 0x1d, 0xfc, 0xdf, 0x2b, 0xf3, 0xfa,
  0x56, 0x5f, 0xf2, 0x2b, 0x2f, 0x04, 0x1d, 0x1b, 0x72, 0x4d, 0x20, 0xe4,
  0x03, 0xde, 0x15, 0xfb, 0x35, 0x3c, 0x33, 0xfd, 0xf7, 0x14, 0x26, 0x14,
  0x40, 0x2d, 0x09, 0x01, 0xe0, 0x17, 0x30, 0x12, 0x0b, 0x47, 0xee, 0x19,
  0xd9, 0x01, 0x14, 0x14, 0x23, 0x3a, 0x07, 0xe4, 0xc8, 0xca, 0x2b, 0xe9,
  0x4f, 0x22, 0xe4, 0xed, 0xec, 0xf7, 0x38, 0xd9, 0x26, 0x13, 0x26, 0xc6,
  0xdc, 0x2b, 0xfa, 0xc8, 0x36, 0x3d, 0x2d, 0xe9, 0x12, 0xfc, 0x02, 0xd8,
  0xf0, 0x33, 0xdf, 0x03, 0x0d, 0x1e, 0x27, 0x2c, 0x20, 0xfb, 0xf4, 0xcb,
  0x23, 0xf0, 0x2a, 0xdd, 0xfb, 0x39, 0xfe, 0x08, 0x24, 0x10, 0x0d, 0x36,
  0x0e, 0xfc, 0x00, 0x02, 0x27, 0xf4, 0x22, 0xf9, 0xed, 0x12, 0xf0, 0xff,
  0x0f, 0x09, 0xdc, 0xdc, 0x31, 0x10, 0xfe, 0xd6, 0xe1, 0xfc, 0x06, 0xc7,
  0xf5, 0x09, 0xfc, 0x1c, 0x08, 0x33, 0xf9, 0x22, 0x00, 0xe0, 0xf7, 0x22,
  0x03, 0x1d, 0x1d, 0x17, 0xfb, 0xbb, 0xef, 0xd5, 0xfc, 0x09, 0x01, 0xe9,
  0x07, 0xfb, 0x06, 0xea, 0x09, 0xc9, 0x2e, 0x15, 0xf6, 0xd4, 0x0b, 0xf2,
  0x10, 0x16, 0xf3, 0x2b, 0xf5, 0xf4, 0xf7, 0x0c, 0xe8, 0x00, 0xd9, 0x05,
  0xf4, 0x2c, 0x15, 0x0c, 0x02, 0x1d, 0x03, 0xf5, 0xfb, 0x10, 0xdf, 0x1f,
  0x0c, 0x0b, 0x01, 0x1f, 0x14, 0x17, 0x13, 0x17, 0x05, 0xf0, 0x25, 0xe4,
  0x08, 0x21, 0x19, 0x0e, 0xfe, 0xe7, 0x11, 0x11, 0xf1, 0xf3, 0xe3, 0x11,
  0x0b, 0xe9, 0x14, 0x14, 0x03, 0xeb, 0xf6, 0x16, 0x04, 0x25, 0x13, 0x00,
  0xea, 0x06, 0x19, 0x0e, 0xfc, 0x27, 0xfd, 0x0e, 0xed, 0xe6, 0x1f, 0x01,
  0xfe, 0x1c, 0xe3, 0xe1, 0xda, 0x11, 0xf7, 0xfb, 0xfb, 0x04, 0x1e, 0x03,
  0xd6, 0x03, 0x1f, 0xff, 0x00, 0xff, 0xf3, 0xee, 0xde, 0xfc, 0xe7, 0x0e,
  0xf8, 0xe2, 0x01, 0x02, 0xd4, 0xfd, 0xfd, 0x0f, 0xfa, 0x12, 0xfb, 0xd3,
  0xd7, 0xef, 0x04, 0xfb, 0x09, 0xfd, 0x05, 0xd1, 0xff, 0x2f, 0x10, 0xf7,
  0x0f, 0x18, 0x08, 0x08, 0x17, 0x04, 0x09, 0xf2, 0xf7, 0x06, 0xe7, 0xf9,
  0xfb, 0xf4, 0xf3, 0x03, 0xf0, 0xef, 0xf9, 0x16, 0xef, 0x0b, 0x0b, 0x18,
  0xfe, 0xda, 0xfd, 0xd3, 0xe6, 0xf6, 0x02, 0xf3, 0x01, 0xfd, 0x01, 0xfe,
  0x0a, 0x04, 0xe9, 0x02, 0x1c, 0x16, 0x07, 0x30, 0xff, 0xf3, 0x15, 0x10,
  0xfb, 0xe9, 0xe6, 0x03, 0x0d, 0x1e, 0xef, 0x0f, 0xe8, 0xf7, 0x20, 0x03,
  0x1d, 0x0e, 0xf8, 0x1a, 0x0f, 0x1c, 0x03, 0x17, 0x1e, 0x09, 0x1d, 0x09,
  0x10, 0x04, 0x18, 0xf0, 0xeb, 0xff, 0xfc, 0x17, 0xf2, 0x14, 0x13, 0xfc,
  0x09, 0x1f, 0xe6, 0x0c, 0x07, 0x01, 0x10, 0xe1, 0x06, 0xee, 0x12, 0x21,
  0x03, 0xf5, 0x15, 0x24, 0xf1, 0xde, 0xeb, 0x25, 0xf7, 0xf1, 0xf0, 0xdd,
  0xfa, 0xe0, 0x19, 0xeb, 0x0f, 0xe5, 0xf8, 0x0a, 0xc9, 0xf5, 0xf6, 0xfc,
  0xfc, 0x0e, 0xee, 0x26, 0xe1, 0x0b, 0x0d, 0xfb, 0xe8, 0x07, 0x0d, 0xfc,
  0xf6, 0x09, 0x1f, 0xf0, 0x11, 0xe0, 0x03, 0x1f, 0xf1, 0x17, 0x12, 0xff,
  0x13, 0x1e, 0x07, 0xf9, 0xf6, 0x0c, 0xe8, 0xf2, 0xf1, 0x09, 0x12, 0x28,
  0xec, 0x15, 0x05, 0xf7, 0x03, 0x19, 0x00, 0xdb, 0x14, 0x05, 0x05, 0x0b,
  0xea, 0xde, 0xfd, 0x1c, 0x02, 0x1b, 0x0d, 0x07, 0xfb, 0xfd, 0xf0, 0x0c,
  0x09, 0xf7, 0xd8, 0x1d, 0xe6, 0x14, 0x10, 0xf0, 0x2e, 0xf6, 0xe9, 0x1a,
  0x03, 0xfe, 0x11, 0xe5, 0xfd, 0xe4, 0x14, 0xf8, 0xea, 0x1d, 0x14, 0x18,
  0x11, 0xf3, 0xde, 0x10, 0xda, 0x20, 0xfe, 0x18, 0xde, 0x25, 0xf5, 0x08,
  0x01, 0xf2, 0xf3, 0x11, 0x2c, 0x05, 0xe4, 0x0a, 0x0a, 0xfc, 0xfa, 0xe9,
  0xfd, 0x19, 0x25, 0xf6, 0x0f, 0x09, 0x17, 0xfc, 0x15, 0x0e, 0xf2, 0xf6,
  0x0f, 0x10, 0x05, 0x26, 0xe5, 0x14, 0x29, 0xe2, 0x12, 0x07, 0x14, 0xf2,
  0x02, 0xee, 0x21, 0xe9, 0x03, 0x08, 0x03, 0x10, 0x0b, 0x0f, 0x27, 0xf6,
  0xf0, 0x23, 0xea, 0xef, 0x12, 0xf5, 0x06, 0x01, 0x02, 0x02, 0xe8, 0xfc,
  0x05, 0x07, 0x08, 0x11, 0xfe, 0xf0, 0xec, 0xe8, 0xfb, 0x1a, 0xfa, 0xf3,
  0x00, 0xff, 0x03, 0x0e, 0xfd, 0xf7, 0x16, 0xf4, 0x0f, 0xe1, 0xfa, 0xef,
  0xf3, 0x35, 0xf2, 0xff, 0x0c, 0xe8, 0x02, 0xe8, 0x16, 0x06, 0x0e, 0x14,
  0xf2, 0x06, 0x03, 0x03, 0xe4, 0x26, 0x03, 0xf9, 0xfc, 0x09, 0xfc, 0xf1,
  0x08, 0x1f, 0x0b, 0xed, 0xf9, 0xef, 0x05, 0xff, 0x16, 0x08, 0x16, 0x04,
  0xfc, 0x11, 0x03, 0x16, 0x25, 0xfc, 0xe3, 0xe3, 0xfe, 0xea, 0xf2, 0xf5,
  0x1e, 0x04, 0xeb, 0x0e, 0x01, 0x18, 0x03, 0x06, 0xff, 0xd3, 0x0c, 0xed,
  0xfe, 0xfc, 0x19, 0x11, 0x0c, 0xfa, 0xff, 0x28, 0xd5, 0x01, 0xf9, 0xee,
  0x2b, 0x1f, 0xff, 0x23, 0x11, 0x28, 0xe0, 0xfe, 0xf7, 0x0e, 0x0b, 0x06,
  0x03, 0xfb, 0x1f, 0x02, 0xe6, 0x21, 0x09, 0x1b, 0x11, 0xd6, 0xfe, 0x05,
  0x15, 0xfa, 0x23, 0x07, 0x0f, 0x11, 0x2b, 0xf5, 0x0a, 0x1a, 0x0e, 0x05,
  0x0c, 0xd8, 0x27, 0x15, 0xfd, 0xf6, 0xfe, 0x2e, 0x16, 0xff, 0xf6, 0x32,
  0xe9, 0xd9, 0xff, 0x0d, 0xfc, 0xff, 0xf7, 0x19, 0xfd, 0xe8, 0x19, 0xf9,
  0x04, 0x18, 0xf7, 0xfa, 0xfa, 0xe5, 0x01, 0xdd, 0x06, 0x18, 0xe1, 0xed,
  0xe2, 0x1e, 0x1d, 0xfa, 0xfd, 0xe3, 0xea, 0x12, 0xe9, 0x09, 0xd7, 0xf8,
  0xed, 0xeb, 0xec, 0xff, 0xda, 0x39, 0xf1, 0x25, 0xfe, 0x11, 0x16, 0x1a,
  0x02, 0x18, 0xe8, 0x12, 0xee, 0xe6, 0xfa, 0x02, 0x18, 0xf9, 0x01, 0x08,
  0x10, 0x0a, 0x33, 0x0b, 0x23, 0x2f, 0x0e, 0xfe, 0xfd, 0xd3, 0x24, 0x07,
  0x0f, 0x00, 0xe1, 0x1b, 0x09, 0x10, 0x10, 0x0d, 0xf3, 0x01, 0xf6, 0xed,
  0xfa, 0xf0, 0x17, 0xfe, 0x17, 0xfd, 0xfd, 0x09, 0xfa, 0xf6, 0xed, 0xec,
  0xf9, 0xc3, 0xfc, 0x05, 0xf7, 0xff, 0x0c, 0x04, 0xf5, 0xfd, 0x22, 0xe2,
  0x03, 0x20, 0x08, 0x29, 0x18, 0x2d, 0x0e, 0x3d, 0x05, 0x23, 0xf6, 0x15,
  0xf4, 0x0c, 0x02, 0x0e, 0xf9, 0xfe, 0xe4, 0x18, 0xd6, 0x07, 0x10, 0x1f,
  0x02, 0xf7, 0x01, 0xdd, 0xea, 0x12, 0xfb, 0x43, 0x0e, 0xf2, 0x02, 0xfe,
  0xf1, 0xf3, 0xec, 0x17, 0xf4, 0x19, 0x0b, 0xe2, 0x0a, 0xf1, 0xf4, 0x0a,
  0x24, 0xf8, 0xf7, 0x14, 0xf1, 0x03, 0x16, 0xf4, 0x03, 0x0f, 0xe9, 0x0f,
  0x17, 0xe8, 0xea, 0xc8, 0x0b, 0x19, 0xd8, 0xf8, 0x00, 0xda, 0x04, 0xd3,
  0x0c, 0x00, 0xe6, 0x35, 0xf6, 0x0b, 0x14, 0xdb, 0xfc, 0x04, 0xe7, 0x1b,
  0xf6, 0x1d, 0x0d, 0x0a, 0xfa, 0x1e, 0xf5, 0x18, 0xcb, 0x22, 0xdf, 0x21,
  0xfc, 0xde, 0x08, 0x05, 0xe7, 0x10, 0xfb, 0x32, 0x01, 0x22, 0x3f, 0x04,
  0xea, 0xff, 0xf6, 0x02, 0x04, 0x07, 0x41, 0x19, 0x05, 0x0f, 0x34, 0xe7,
  0x0f, 0x06, 0x1a, 0x12, 0x11, 0x01, 0x15, 0x27, 0x10, 0x11, 0x09, 0x04,
  0x04, 0xf7, 0x0f, 0x40, 0xee, 0x24, 0x0e, 0xf3, 0x14, 0x03, 0x11, 0x04,
  0xf0, 0xeb, 0xf9, 0x0a, 0xf7, 0xc1, 0xfd, 0xef, 0xeb, 0xef, 0x09, 0x0d,
  0x1e, 0xf5, 0x09, 0xfe, 0x16, 0xd7, 0x05, 0xe8, 0x25, 0x24, 0xf2, 0x0d,
  0x18, 0x16, 0xf1, 0xe1, 0xf0, 0x1b, 0x15, 0x1e, 0x15, 0x01, 0xdd, 0xf5,
  0xcb, 0xf7, 0x04, 0x33, 0x28, 0x03, 0x01, 0xfd, 0xdd, 0x0b, 0x1a, 0x20,
  0x05, 0xd8, 0x30, 0x0a, 0xff, 0xfe, 0x2a, 0x2f, 0x05, 0x05, 0xfb, 0x13,
  0xff, 0x19, 0xfd, 0x1e, 0x08, 0xee, 0x0a, 0x23, 0xe5, 0xe7, 0xdd, 0xef,
  0x12, 0x1b, 0xf8, 0x2e, 0x13, 0xd4, 0xf8, 0xe9, 0x10, 0xe8, 0xf2, 0xe4,
  0x00, 0xef, 0x1b, 0xd1, 0x06, 0xf0, 0xdd, 0xfe, 0xf5, 0xf6, 0xe1, 0xd3,
  0x05, 0x09, 0xd5, 0xf3, 0xf1, 0x0c, 0x1d, 0xe8, 0xfa, 0x02, 0xf5, 0x2a,
  0xc1, 0x22, 0x34, 0x17, 0xf7, 0xe0, 0x12, 0xe7, 0xd0, 0x1a, 0xf5, 0xfe,
  0x08, 0x04, 0x52, 0xf8, 0xd3, 0xf0, 0xff, 0xf1, 0x08, 0xf5, 0x3b, 0x10,
  0xf7, 0xfb, 0x16, 0x0a, 0x0e, 0x10, 0x12, 0x0f, 0xdb, 0x06, 0xeb, 0xf0,
  0x14, 0xf4, 0x20, 0x28, 0xe0, 0xf3, 0xfc, 0xfc, 0xf8, 0xf9, 0xfc, 0xe3,
  0xe8, 0x07, 0xf4, 0x10, 0x0a, 0x0d, 0xf5, 0x2d, 0x0f, 0xdc, 0xe2, 0x20,
  0x1a, 0xe9, 0x08, 0xff, 0x02, 0xf6, 0x23, 0x19, 0xfa, 0x0d, 0xf6, 0xfd,
  0x07, 0x23, 0xfe, 0x38, 0xed, 0xf0, 0x00, 0x0b, 0xbe, 0x1b, 0xe1, 0x33,
  0x14, 0xff, 0xd9, 0xff, 0xb4, 0x19, 0xf8, 0x29, 0x36, 0xfe, 0x27, 0x03,
  0xeb, 0xf9, 0x0e, 0xf8, 0x1c, 0x1f, 0x18, 0x2d, 0xf8, 0x21, 0x24, 0x23,
  0x0a, 0xf1, 0x18, 0x13, 0x02, 0x11, 0x04, 0xe6, 0x0a, 0x26, 0x19, 0xf8,
  0xfd, 0xe3, 0x14, 0xd6, 0x1b, 0x0a, 0x00, 0xf7, 0x09, 0x08, 0x1c, 0xbb,
  0x24, 0xe8, 0xe9, 0x1a, 0xfc, 0x0d, 0xe8, 0xaf, 0x04, 0xe5, 0xe2, 0x03,
  0xdc, 0x0f, 0x0f, 0xd3, 0xf0, 0x14, 0xfd, 0x02, 0xf0, 0x1c, 0x2a, 0xd0,
  0xfd, 0xda, 0xf3, 0x1c, 0xdb, 0x22, 0x10, 0xf2, 0xfe, 0x06, 0x2f, 0x14,
  0xc6, 0x12, 0x11, 0x07, 0xee, 0xfa, 0x2a, 0x1c, 0xd5, 0xfc, 0x0b, 0xfa,
  0xf7, 0xfe, 0x50, 0x26, 0xf1, 0x04, 0x0a, 0x0b, 0xf7, 0xe9, 0x40, 0x29,
  0xc8, 0xf8, 0xfd, 0xfd, 0x01, 0xf4, 0x15, 0x29, 0xd6, 0xfa, 0x20, 0x15,
  0x0d, 0xe0, 0x0a, 0xf6, 0x00, 0xf3, 0x0b, 0x12, 0x0b, 0x1e, 0xf9, 0x06,
  0x0f, 0xe5, 0xcb, 0x15, 0x0d, 0x04, 0x15, 0x1b, 0x22, 0xf7, 0xf7, 0x0d,
  0x04, 0xe5, 0x07, 0xfb, 0xe3, 0x26, 0xf2, 0x18, 0x0f, 0xe1, 0xe2, 0xdf,
  0xc1, 0x13, 0x07, 0x1c, 0x18, 0xe2, 0xec, 0xe6, 0xba, 0x19, 0xf7, 0x23,
  0x17, 0x0a, 0x1a, 0x06, 0xd1, 0xfc, 0x07, 0xfa, 0x37, 0xf0, 0x10, 0x35,
  0xf4, 0xf8, 0x20, 0xec, 0x16, 0xea, 0x11, 0x24, 0xf7, 0x04, 0x2a, 0xfc,
  0x02, 0x1b, 0x02, 0x3d, 0x09, 0xea, 0x0f, 0xbd, 0x0a, 0xfd, 0xe5, 0xf4,
  0xf6, 0x01, 0xf8, 0xbd, 0xf5, 0x07, 0xd9, 0x01, 0x00, 0x01, 0x10, 0xbc,
  0x08, 0xea, 0xf9, 0xff, 0xea, 0x0d, 0xe1, 0xd4, 0xf3, 0x06, 0x07, 0xef,
  0xd8, 0x03, 0x16, 0xc2, 0xf9, 0xfd, 0x11, 0xec, 0xb1, 0xfc, 0x0e, 0xe9,
  0x0c, 0xde, 0x22, 0x25, 0xe3, 0xfe, 0x17, 0xe4, 0x0a, 0xfc, 0x3c, 0x2e,
  0xe4, 0x03, 0x1d, 0x05, 0x10, 0xe2, 0x2d, 0x1d, 0x01, 0x08, 0xf5, 0x16,
  0xf2, 0x0d, 0x18, 0x0e, 0xeb, 0x0d, 0x27, 0xf6, 0x04, 0xf5, 0x2b, 0x17,
  0xee, 0xf2, 0xf6, 0x1c, 0x04, 0x0b, 0x04, 0xff, 0x05, 0x15, 0xe8, 0x15,
  0xff, 0xfa, 0x03, 0x09, 0x16, 0xe6, 0xec, 0xfa, 0xe9, 0xf8, 0x1a, 0x02,
  0x04, 0xf4, 0x23, 0xf6, 0x0b, 0xe5, 0x1d, 0xf7, 0xfb, 0x17, 0x1e, 0x1e,
  0x18, 0x0f, 0x21, 0xe1, 0xa1, 0x1a, 0xf5, 0x11, 0x1a, 0x03, 0x04, 0xe1,
  0xad, 0x09, 0xd9, 0x12, 0x52, 0xf4, 0x25, 0x07, 0xdb, 0xf3, 0xf6, 0xda,
  0x1f, 0xe2, 0x2d, 0x27, 0x05, 0x16, 0x11, 0xf6, 0x11, 0x14, 0xfd, 0x1d,
  0x1e, 0x0d, 0x0e, 0xeb, 0x03, 0xe3, 0x25, 0x13, 0x19, 0xfe, 0xdf, 0xbb,
  0x18, 0xed, 0xf5, 0x24, 0x12, 0x12, 0xed, 0xe1, 0x24, 0xfb, 0xe0, 0x1b,
  0x25, 0x02, 0xf1, 0xa6, 0x17, 0xf5, 0x06, 0x1a, 0xee, 0x17, 0x07, 0xc6,
  0x0c, 0x21, 0xda, 0xfd, 0xc3, 0xf6, 0x28, 0xc6, 0xfe, 0xea, 0x17, 0x07,
  0xec, 0x14, 0x00, 0x15, 0xf4, 0x08, 0x1c, 0xfe, 0xcd, 0x14, 0xd9, 0xda,
  0x26, 0x23, 0x3d, 0x2b, 0xc6, 0x1c, 0xfc, 0xf0, 0x1a, 0x02, 0x2e, 0x11,
  0xf4, 0x13, 0xff, 0xf7, 0x0d, 0xdf, 0x38, 0x08, 0xe7, 0xec, 0xea, 0x16,
  0x2d, 0xf3, 0x24, 0x2b, 0xe6, 0x0a, 0xe5, 0xed, 0x26, 0xe2, 0x03, 0x08,
  0xfe, 0x01, 0x1c, 0x21, 0x04, 0xf4, 0xfd, 0xff, 0x10, 0xdb, 0xd9, 0xf1,
  0x04, 0x07, 0x08, 0x1f, 0x0a, 0xe8, 0xf1, 0x06, 0xfd, 0x11, 0x0a, 0xe0,
  0xda, 0x20, 0x1d, 0x3e, 0x43, 0x0f, 0x07, 0xeb, 0xca, 0x07, 0x0e, 0xf8,
  0x06, 0x0f, 0xfd, 0xf4, 0xc0, 0xfb, 0xe3, 0xea, 0x4d, 0x13, 0xe4, 0x12,
  0xd1, 0x20, 0x2c, 0xf6, 0x3a, 0x09, 0x19, 0x32, 0xf2, 0x05, 0x0b, 0xc6,
  0x16, 0xf7, 0xfc, 0x22, 0x0e, 0x09, 0x0c, 0xd9, 0x1c, 0x1e, 0x04, 0x2d,
  0x10, 0xfc, 0x06, 0xe4, 0x25, 0xec, 0xf1, 0x1a, 0x03, 0x01, 0xf7, 0xd0,
  0x0b, 0x19, 0x10, 0x17, 0xe0, 0xea, 0xf6, 0xbd, 0xfd, 0xf9, 0x03, 0x02,
  0x08, 0x05, 0x29, 0xdc, 0x00, 0xe7, 0xdf, 0xf6, 0xee, 0x04, 0xed, 0xd5,
  0xf0, 0xe6, 0x0a, 0xf4, 0xe5, 0xf9, 0xfa, 0xd9, 0x16, 0xec, 0x37, 0x20,
  0xe1, 0x15, 0xf4, 0xf8, 0x05, 0x1f, 0x0a, 0x3a, 0xf7, 0x07, 0xfb, 0xe0,
  0x1e, 0x02, 0x05, 0x29, 0xfd, 0x11, 0xee, 0xeb, 0x09, 0xeb, 0x0c, 0x0e,
  0xfe, 0xfe, 0xf0, 0x00, 0x30, 0x0d, 0x0d, 0x1b, 0xfc, 0xf3, 0xfe, 0xf9,
  0x05, 0x0b, 0x03, 0x06, 0x0a, 0xec, 0xfa, 0x25, 0x01, 0xf7, 0x13, 0x0a,
  0xfa, 0xdc, 0xe4, 0x1f, 0xfa, 0xe4, 0x02, 0x01, 0x1d, 0xf1, 0xe8, 0x02,
  0x01, 0xfd, 0x24, 0xec, 0xe6, 0x08, 0x1b, 0x3e, 0x29, 0x03, 0x12, 0x01,
  0xb5, 0x15, 0x13, 0xf6, 0x35, 0xeb, 0xdf, 0xd8, 0x9e, 0xec, 0xec, 0xf5,
  0x49, 0xe4, 0x10, 0x1b, 0xf6, 0x0f, 0xde, 0xf6, 0x0c, 0x11, 0x07, 0x17,
  0xf3, 0x24, 0xff, 0xf4, 0x22, 0xfe, 0x06, 0xfc, 0x12, 0x08, 0x08, 0xcb,
  0x22, 0x13, 0x29, 0x38, 0x13, 0xf0, 0xe5, 0xc1, 0x12, 0xff, 0x0e, 0xde,
  0xfa, 0x00, 0xf8, 0xbf, 0x07, 0x10, 0xf0, 0xee, 0x0a, 0x12, 0xe8, 0xad,
  0x10, 0x01, 0xf4, 0x2d, 0xeb, 0x15, 0xf6, 0xd7, 0xef, 0xf8, 0xfd, 0xf4,
  0xe5, 0x11, 0x23, 0xcc, 0x17, 0x03, 0xe9, 0xf0, 0xf1, 0x05, 0xf0, 0xdb,
  0x14, 0x16, 0x19, 0x12, 0xd5, 0xfc, 0xf9, 0xf0, 0x2b, 0x0e, 0x23, 0x12,
  0xeb, 0x06, 0xf2, 0xeb, 0x10, 0x21, 0x2f, 0x29, 0x09, 0x0f, 0x17, 0xe5,
  0x07, 0xf6, 0x22, 0x0b, 0xfb, 0xe7, 0x04, 0x0f, 0x1c, 0x02, 0x1f, 0x28,
  0xf9, 0xe9, 0xf5, 0x17, 0x15, 0xdc, 0x10, 0x16, 0xf9, 0x01, 0xda, 0xf3,
  0xff, 0x11, 0x07, 0xe8, 0x13, 0xf5, 0x22, 0x1f, 0x25, 0x06, 0xf7, 0xef,
  0xff, 0xde, 0xf4, 0x00, 0xfb, 0x20, 0x15, 0xe0, 0xec, 0x0f, 0x0c, 0x0d,
  0x49, 0x12, 0x33, 0xdf, 0xb2, 0x0d, 0xfc, 0x08, 0x50, 0x03, 0x08, 0x06,
  0xd7, 0xf6, 0xf2, 0x1b, 0x53, 0xdd, 0xf3, 0x05, 0xd6, 0x16, 0x02, 0xf2,
  0x0e, 0xe3, 0x13, 0x21, 0xf2, 0x18, 0xfd, 0xd3, 0x1e, 0xe0, 0x10, 0x03,
  0x32, 0x21, 0xe8, 0xdb, 0x14, 0xff, 0x0e, 0x13, 0x0c, 0x0c, 0x14, 0xbb,
  0x19, 0xf5, 0x0f, 0xfb, 0x13, 0x06, 0xd7, 0xcc, 0x0b, 0x24, 0xf4, 0xfd,
  0x08, 0x17, 0xf7, 0xe4, 0x03, 0x27, 0xfe, 0x1b, 0x00, 0x16, 0xd8, 0xc5,
  0xee, 0x08, 0x0a, 0xfe, 0xeb, 0xed, 0xeb, 0xe5, 0xf8, 0xe3, 0xf1, 0x03,
  0xd6, 0x18, 0xf7, 0xe4, 0x1d, 0xd8, 0x0b, 0x15, 0xe6, 0x0b, 0xe7, 0x1c,
  0x3c, 0x09, 0x11, 0x4d, 0xec, 0xef, 0xeb, 0xdc, 0x28, 0xe4, 0x0f, 0x09,
  0x06, 0x19, 0x11, 0xe9, 0x1f, 0xe3, 0x1f, 0xff, 0xf1, 0xf3, 0x0d, 0x02,
  0x24, 0x1e, 0x10, 0x1b, 0xf5, 0x13, 0xe2, 0x0e, 0x19, 0xf8, 0xfb, 0x09,
  0x11, 0xe3, 0xf2, 0xfa, 0x17, 0xe4, 0x03, 0xfc, 0xfa, 0xde, 0xee, 0x0d,
  0xf2, 0x0b, 0x02, 0xfc, 0x01, 0xdf, 0xe8, 0xdc, 0x01, 0x0d, 0x1d, 0xf3,
  0xed, 0xe7, 0xf9, 0x06, 0x44, 0x0b, 0x2d, 0xee, 0xc2, 0x1b, 0x19, 0x2d,
  0x5e, 0xfd, 0xff, 0xe1, 0xd9, 0xdc, 0x0d, 0x12, 0x45, 0xf0, 0xf0, 0x24,
  0xd0, 0xf9, 0xf9, 0xf4, 0x25, 0xed, 0x08, 0x3a, 0xf4, 0x1b, 0x01, 0xe3,
  0x0a, 0x06, 0xf3, 0x20, 0x16, 0x06, 0xf4, 0xe4, 0x21, 0xec, 0x1b, 0x2a,
  0x12, 0xfd, 0xfb, 0xd5, 0x06, 0x00, 0x0a, 0x08, 0x14, 0xeb, 0x14, 0xd4,
  0xf3, 0xd5, 0xf9, 0xef, 0x09, 0x18, 0xcd, 0xd8, 0x04, 0x15, 0xe9, 0x16,
  0xf3, 0x10, 0xe4, 0xc9, 0xe4, 0xe5, 0x06, 0xf6, 0x00, 0x11, 0xe6, 0xe1,
  0x05, 0xf7, 0x09, 0xf6, 0xdc, 0x12, 0x1e, 0x02, 0x20, 0xdd, 0xe8, 0x09,
  0xfb, 0x09, 0x00, 0xdf, 0x20, 0x06, 0x00, 0x10, 0xf4, 0x0a, 0x0e, 0xe7,
  0x1d, 0xfb, 0x2a, 0x30, 0x27, 0x07, 0xff, 0xea, 0x0f, 0xe4, 0x1d, 0x2c,
  0x07, 0xf7, 0xe0, 0x0f, 0x24, 0xf8, 0x19, 0x00, 0xfe, 0x0a, 0xe5, 0xe2,
  0x07, 0xfc, 0xfc, 0xf6, 0xf1, 0x00, 0xff, 0x1c, 0xff, 0x07, 0xeb, 0xfe,
  0x0b, 0xe5, 0x04, 0xe7, 0x18, 0xf8, 0x15, 0x1c, 0x0f, 0xda, 0xe1, 0x00,
  0x26, 0xdf, 0xfc, 0xc5, 0xee, 0x06, 0xfe, 0x31, 0x52, 0x0a, 0x1d, 0xf1,
  0xc2, 0x17, 0x03, 0x10, 0x66, 0xf6, 0xe6, 0x06, 0xc4, 0x00, 0x10, 0x02,
  0x55, 0xfa, 0x01, 0xf7, 0xf1, 0x16, 0x04, 0xec, 0x12, 0x26, 0x0e, 0x1a,
  0x06, 0x0b, 0x26, 0xee, 0x2f, 0xf7, 0x2e, 0x2a, 0x00, 0x12, 0x21, 0xe6,
  0x1e, 0xf6, 0x33, 0xfe, 0x1e, 0x0c, 0x23, 0xd2, 0x03, 0x07, 0x04, 0x01,
  0x1f, 0x17, 0x0e, 0xe6, 0xf5, 0xfb, 0xea, 0x20, 0x05, 0x0d, 0xef, 0xba,
  0x25, 0xe2, 0xe6, 0x24, 0x0a, 0x11, 0xed, 0xfb, 0xf8, 0x18, 0xd5, 0xf0,
  0xe9, 0x08, 0x0e, 0xdf, 0xe4, 0x04, 0xc8, 0xf0, 0x08, 0x0f, 0xf8, 0xe2,
  0x14, 0x05, 0xd6, 0x12, 0xe0, 0x19, 0xf6, 0xe2, 0x37, 0xe8, 0x2b, 0x22,
  0xf0, 0xf4, 0xe8, 0xf8, 0x2e, 0xe8, 0x1a, 0x05, 0xf5, 0x10, 0x06, 0xef,
  0x2f, 0x05, 0x10, 0x21, 0xf6, 0x14, 0x18, 0xeb, 0x2a, 0xf7, 0x00, 0xf1,
  0xf4, 0xdc, 0x1c, 0xfb, 0x02, 0xe1, 0x15, 0x0f, 0x06, 0x0b, 0xdf, 0xfd,
  0xf5, 0xf1, 0xfd, 0xed, 0xfe, 0xaa, 0xe8, 0x0e, 0x29, 0x20, 0xf1, 0x13,
  0xe9, 0xe5, 0x0e, 0xef, 0xf5, 0xf7, 0xf8, 0x0c, 0xd7, 0xee, 0xf9, 0xf8,
  0x7f, 0xe0, 0x0e, 0x04, 0xe2, 0x0c, 0xfe, 0xff, 0x49, 0xeb, 0x32, 0xf9,
  0xe0, 0xe5, 0xd6, 0x1c, 0x4c, 0xde, 0xf9, 0x0a, 0xf5, 0x0e, 0x08, 0xec,
  0x2f, 0xd8, 0x1c, 0x02, 0x03, 0x1a, 0xf6, 0xfa, 0x19, 0x17, 0x22, 0x10,
  0x14, 0x17, 0x0e, 0xe3, 0x24, 0x04, 0x07, 0x28, 0x31, 0x07, 0xfb, 0xc3,
  0xfd, 0xf7, 0x24, 0xe1, 0x08, 0x00, 0x05, 0xce, 0x0a, 0xf9, 0xe7, 0xe8,
  0x25, 0x08, 0xec, 0xf8, 0x03, 0xd9, 0x02, 0x25, 0x0c, 0x0b, 0xf9, 0xcc,
  0x02, 0xf9, 0xff, 0xfa, 0xe2, 0x06, 0xff, 0xf5, 0xe8, 0x00, 0xda, 0x04,
  0xe0, 0x0b, 0xfe, 0xee, 0x11, 0x18, 0xf4, 0x0b, 0xf3, 0xee, 0xec, 0xfa,
  0x1b, 0x0a, 0x11, 0x17, 0xe5, 0xe7, 0xd2, 0x08, 0x3f, 0x10, 0x1c, 0xfe,
  0xf2, 0xf1, 0x03, 0x08, 0x30, 0x0a, 0x18, 0x13, 0xf3, 0x03, 0xdc, 0x01,
  0x18, 0x00, 0x2d, 0x13, 0x0d, 0xf9, 0x0f, 0xe8, 0x03, 0xd4, 0xf4, 0xf5,
  0x1d, 0xef, 0x12, 0x02, 0x08, 0xec, 0xf4, 0x04, 0x11, 0xe1, 0xf6, 0xf6,
  0xf7, 0xf5, 0x06, 0x14, 0xf9, 0xdc, 0xf8, 0xd6, 0xe6, 0xf0, 0x16, 0xf6,
  0xd3, 0x01, 0x29, 0x2f, 0x79, 0x15, 0x0d, 0xd6, 0xe5, 0x07, 0xfd, 0x0e,
  0x72, 0x0c, 0x1e, 0xfd, 0xe3, 0xed, 0xf3, 0x23, 0x59, 0xff, 0xf0, 0x2a,
  0xdd, 0x15, 0x07, 0x1e, 0x42, 0xf2, 0x0d, 0x1d, 0xf1, 0xfe, 0x14, 0x09,
  0x25, 0xd6, 0x17, 0x26, 0x27, 0x17, 0x08, 0xcb, 0x16, 0x0d, 0xe9, 0x06,
  0x05, 0x24, 0x02, 0xd8, 0xf9, 0xef, 0x0a, 0x1f, 0x0d, 0x01, 0xe8, 0xce,
  0x03, 0x13, 0x01, 0xf9, 0xfd, 0xff, 0xf6, 0xe4, 0xef, 0x03, 0xf1, 0x00,
  0xfb, 0x07, 0x18, 0xec, 0x18, 0xff, 0xfa, 0x03, 0xfe, 0x11, 0xce, 0x01,
  0xf7, 0xf9, 0xfb, 0x08, 0x0a, 0x06, 0xf0, 0x03, 0x0c, 0x05, 0x0d, 0x17,
  0xfc, 0xe7, 0x12, 0xfb, 0x21, 0xda, 0x24, 0x37, 0xf9, 0xe9, 0xef, 0xec,
  0x41, 0xef, 0x1a, 0x1b, 0x08, 0x0c, 0xed, 0x0f, 0x2c, 0xec, 0xfe, 0x01,
  0xee, 0x0b, 0xea, 0xf3, 0x4a, 0x05, 0x23, 0xf5, 0xeb, 0x0a, 0x11, 0x17,
  0x1a, 0xdd, 0xf2, 0x1b, 0x1f, 0x03, 0x10, 0x04, 0xf8, 0x06, 0xe1, 0x16,
  0x10, 0xd7, 0x04, 0x14, 0xf3, 0xe2, 0x09, 0xf6, 0x18, 0xeb, 0xfc, 0x03,
  0x01, 0x13, 0x07, 0xdf, 0xd6, 0xf7, 0x16, 0x0f, 0x51, 0x1d, 0x17, 0x05,
  0xd2, 0xd9, 0x15, 0x20, 0x56, 0x05, 0x0b, 0x14, 0xdc, 0xf5, 0x1d, 0xfc,
  0x6f, 0x22, 0xff, 0x24, 0xc8, 0x10, 0x00, 0x2e, 0x3b, 0x04, 0xea, 0x11,
  0x18, 0x0f, 0xf2, 0xe2, 0x13, 0x0e, 0x18, 0xea, 0x15, 0x1a, 0x10, 0x01,
  0x3c, 0xfd, 0x21, 0x03, 0xf6, 0x0a, 0xfc, 0xbf, 0x06, 0xfb, 0xf4, 0xf6,
  0x1d, 0xfe, 0xff, 0xe2, 0xe5, 0xe3, 0x01, 0xf8, 0x24, 0x01, 0xf9, 0xe5,
  0x09, 0x00, 0x04, 0x26, 0xef, 0x01, 0xee, 0xd8, 0x01, 0xe5, 0x07, 0x1b,
  0x26, 0x03, 0xfd, 0x0e, 0xf5, 0x0a, 0xd2, 0xec, 0xe6, 0xf5, 0xe0, 0xfa,
  0x15, 0xed, 0xdc, 0xf1, 0xe6, 0x06, 0xd0, 0x0e, 0x32, 0xf4, 0xf1, 0x04,
  0xfc, 0x01, 0x0a, 0xf5, 0x27, 0x03, 0x30, 0x22, 0x22, 0x08, 0xfc, 0x25,
  0x24, 0xfe, 0x30, 0x11, 0x06, 0x02, 0xdd, 0x10, 0x2b, 0x13, 0x0b, 0x18,
  0x00, 0x00, 0x0d, 0x1a, 0x0f, 0x07, 0x0e, 0x15, 0x0d, 0xf1, 0xf1, 0xf2,
  0xeb, 0x0d, 0xf3, 0x01, 0x1d, 0xe1, 0x02, 0x2d, 0x19, 0xee, 0x11, 0xe9,
  0x0d, 0xfc, 0xf0, 0x21, 0x24, 0xf7, 0x04, 0xfd, 0xf0, 0xf8, 0xf5, 0x0b,
  0x63, 0x10, 0xf3, 0xee, 0xeb, 0xf1, 0xe5, 0x13, 0x6b, 0xd6, 0x07, 0x0c,
  0xc3, 0xf3, 0xdc, 0xf5, 0x3a, 0xda, 0x05, 0x22, 0xe0, 0xe6, 0x20, 0x1d,
  0x36, 0xdf, 0x00, 0x15, 0x05, 0x0b, 0x0f, 0xed, 0x12, 0x02, 0x20, 0x34,
  0xf4, 0x22, 0x17, 0xdf, 0x24, 0x12, 0x16, 0x1f, 0x0f, 0x16, 0xf4, 0xe3,
  0xf7, 0xe1, 0x02, 0x14, 0x1c, 0x07, 0xde, 0xf8, 0xe3, 0xef, 0xe8, 0x1a,
  0xed, 0x0c, 0x2a, 0xce, 0xe6, 0x12, 0xe5, 0x08, 0xfd, 0x13, 0x13, 0x0b,
  0x0e, 0xe7, 0xe9, 0xe9, 0x0d, 0x15, 0xff, 0x05, 0xe0, 0x0d, 0xe8, 0xe6,
  0x16, 0x03, 0xea, 0xfc, 0x13, 0x04, 0xeb, 0xf1, 0xfb, 0x04, 0xfc, 0xe0,
  0x3d, 0xda, 0x19, 0x1a, 0xf1, 0x0e, 0xf1, 0xe2, 0x20, 0xf4, 0x25, 0x21,
  0x01, 0x01, 0xf9, 0x11, 0x26, 0xe6, 0x22, 0x09, 0xf3, 0x0b, 0xf6, 0xfb,
  0x15, 0x0c, 0x36, 0xfa, 0xe7, 0xf7, 0xfc, 0x12, 0x1b, 0xf8, 0x09, 0xf7,
  0x1a, 0xfe, 0x06, 0x07, 0xf9, 0xea, 0xff, 0x0e, 0xfa, 0xd2, 0xff, 0xf3,
  0x23, 0x12, 0x19, 0xea, 0x12, 0xf2, 0x01, 0x0a, 0x21, 0xfd, 0xee, 0xe9,
  0xf4, 0x05, 0x05, 0xef, 0x4b, 0xf9, 0x2a, 0xf5, 0xe9, 0xf0, 0xfb, 0x0e,
  0x48, 0xf4, 0x29, 0xf7, 0xf3, 0xd6, 0xe4, 0x04, 0x36, 0xde, 0xf8, 0x1f,
  0xd6, 0xea, 0xed, 0x04, 0x47, 0x08, 0xfe, 0x1a, 0xfe, 0x20, 0x09, 0xf7,
  0x1d, 0xe3, 0x1b, 0x21, 0x2f, 0x19, 0xf8, 0x06, 0x11, 0x09, 0x09, 0x10,
  0x04, 0x05, 0xe4, 0xd0, 0x10, 0xd6, 0xf6, 0xf1, 0x07, 0x18, 0xf3, 0xfb,
  0xeb, 0xe5, 0x03, 0x10, 0xe4, 0xee, 0x06, 0xc8, 0xf3, 0xf2, 0x13, 0x0b,
  0xe8, 0xff, 0xe9, 0xfb, 0xfb, 0xea, 0xeb, 0x32, 0x17, 0xf2, 0xee, 0xe4,
  0x18, 0x1c, 0x05, 0xfd, 0xf0, 0x0d, 0x14, 0x09, 0x04, 0x0e, 0xeb, 0x21,
  0x04, 0x00, 0x26, 0xe4, 0x42, 0xea, 0x0c, 0x03, 0x11, 0x0e, 0xed, 0x0c,
  0x40, 0xec, 0x19, 0x27, 0xfa, 0x10, 0xf9, 0xeb, 0x1a, 0x13, 0x0d, 0xe1,
  0xdc, 0xfd, 0xe6, 0x1c, 0x10, 0xee, 0x14, 0x11, 0xed, 0xff, 0xf2, 0xf8,
  0x10, 0xe3, 0x00, 0x0d, 0x0d, 0x0b, 0xf9, 0xff, 0xef, 0xe1, 0xee, 0x19,
  0xf6, 0xdd, 0x00, 0x1b, 0x13, 0x05, 0x08, 0xe7, 0x23, 0xf7, 0xe5, 0xfd,
  0x29, 0xe1, 0x16, 0xed, 0x07, 0xf8, 0x01, 0x10, 0x49, 0xe5, 0x34, 0xdf,
  0x1a, 0xf2, 0x2f, 0x18, 0x40, 0x0c, 0x09, 0x2e, 0xed, 0xeb, 0xe8, 0xf2,
  0x46, 0x09, 0x22, 0x1c, 0x09, 0xed, 0x2c, 0xf2, 0x34, 0x06, 0xfc, 0x19,
  0x08, 0x05, 0xf9, 0xf6, 0x27, 0xe9, 0x15, 0x09, 0x2f, 0x23, 0xf1, 0x12,
  0x19, 0xe3, 0x05, 0x02, 0x01, 0x20, 0x14, 0xdb, 0x03, 0xf8, 0x0d, 0x1c,
  0xef, 0x13, 0xde, 0xbd, 0xf0, 0xfc, 0xe6, 0x0f, 0x07, 0xe9, 0xfb, 0xe8,
  0xdb, 0xec, 0x00, 0xfb, 0x05, 0x07, 0x05, 0xeb, 0xf0, 0xf7, 0xf8, 0xf9,
  0x1b, 0xfb, 0xfc, 0x07, 0xec, 0xfb, 0xee, 0x1e, 0xf7, 0x13, 0x0a, 0xef,
  0x0b, 0x0a, 0x0d, 0xfe, 0xef, 0x14, 0xf2, 0xdf, 0x34, 0x27, 0x1c, 0x01,
  0xe2, 0x0a, 0x18, 0xfe, 0x23, 0x08, 0xfd, 0x32, 0x1b, 0x15, 0x14, 0xe6,
  0x14, 0x03, 0x11, 0x16, 0xdd, 0x01, 0xf6, 0x14, 0x21, 0xfc, 0x03, 0x2d,
  0xfe, 0x09, 0x02, 0x1c, 0x09, 0xfa, 0x0d, 0x11, 0x13, 0x10, 0xfe, 0xf7,
  0x00, 0xe6, 0x09, 0xf1, 0x18, 0x01, 0x08, 0x1c, 0x2b, 0x17, 0xef, 0xe2,
  0xfe, 0xfa, 0x12, 0xf8, 0x23, 0xda, 0x17, 0xf2, 0x04, 0xeb, 0xfd, 0x2d,
  0x69, 0x15, 0x0a, 0x02, 0xe8, 0xda, 0x00, 0x0c, 0x46, 0xe4, 0x2b, 0x1c,
  0xf8, 0xdf, 0xfb, 0x09, 0x58, 0x08, 0x1c, 0x05, 0xef, 0x11, 0x0d, 0x06,
  0x25, 0xed, 0x10, 0x25, 0x00, 0x15, 0xf0, 0xe9, 0x09, 0xf0, 0x01, 0x16,
  0x04, 0x2f, 0xfe, 0x20, 0x1d, 0x0f, 0x18, 0x18, 0x18, 0x0b, 0x03, 0xda,
  0x20, 0x01, 0x01, 0x13, 0x01, 0x14, 0xfc, 0xec, 0x06, 0x01, 0xfb, 0x04,
  0x06, 0xe0, 0x1f, 0xe0, 0xda, 0x23, 0x09, 0x25, 0x0e, 0x0e, 0xea, 0xf8,
  0x03, 0x05, 0x1f, 0xfe, 0x2c, 0x0f, 0xf5, 0x01, 0xe3, 0xf8, 0xf7, 0xe6,
  0xee, 0x04, 0x15, 0xe3, 0x1d, 0x0d, 0x05, 0xf1, 0x04, 0xf1, 0xdc, 0x19,
  0x1c, 0x04, 0x19, 0x2d, 0x0c, 0xf7, 0xe5, 0xf3, 0x28, 0xf2, 0x17, 0x03,
  0xef, 0xf9, 0xf1, 0xe0, 0x36, 0x02, 0x30, 0x20, 0x11, 0x00, 0xeb, 0x03,
  0x2d, 0x03, 0x0f, 0x1e, 0x1c, 0xec, 0x2e, 0xfe, 0x1a, 0xd8, 0x09, 0x02,
  0xf5, 0xfd, 0xfb, 0x18, 0xfe, 0xcf, 0xfb, 0xf9, 0xe9, 0xf6, 0x24, 0xd9,
  0xf3, 0x02, 0x10, 0xdf, 0x29, 0xed, 0x0f, 0xf0, 0x0c, 0x01, 0x08, 0xcb,
  0x02, 0x06, 0x0e, 0x2a, 0x55, 0x27, 0x19, 0x1f, 0xf8, 0xe4, 0x23, 0x47,
  0x57, 0xf4, 0x38, 0x1a, 0xfc, 0xec, 0x20, 0x18, 0x52, 0x0f, 0x22, 0x06,
  0xf4, 0xdc, 0x08, 0xec, 0x1e, 0xdd, 0x10, 0x40, 0x08, 0xff, 0x17, 0x2e,
  0x13, 0x12, 0x31, 0x21, 0x03, 0xff, 0x11, 0xf7, 0x34, 0xf1, 0x1e, 0x21,
  0x16, 0x10, 0xfd, 0xde, 0xf9, 0xf9, 0xff, 0x07, 0x16, 0xfc, 0xe6, 0x06,
  0x0c, 0xec, 0x03, 0x07, 0xe2, 0x05, 0x0e, 0xf2, 0xec, 0xf2, 0xe0, 0x11,
  0x26, 0xe6, 0x14, 0x00, 0x00, 0xf9, 0x11, 0x19, 0xee, 0x09, 0x07, 0xee,
  0xdd, 0xfe, 0xdd, 0xe5, 0x0f, 0x0a, 0x0f, 0x05, 0xff, 0x0e, 0xeb, 0x27,
  0xd2, 0xf2, 0x11, 0xdc, 0x11, 0xeb, 0xf6, 0x1e, 0xfc, 0x08, 0x11, 0xfa,
  0x1d, 0x03, 0x22, 0x0c, 0xef, 0xfc, 0xdf, 0x0c, 0x1c, 0xf1, 0x12, 0xfe,
  0xf6, 0x0d, 0xf9, 0xff, 0xf4, 0xed, 0xfb, 0x27, 0x07, 0x0c, 0x07, 0xe5,
  0x05, 0x24, 0x08, 0x0d, 0xe3, 0xdf, 0xe1, 0xec, 0xef, 0xef, 0x0d, 0x08,
  0x05, 0xd1, 0x07, 0x04, 0x0c, 0x14, 0x09, 0x10, 0xfb, 0xc9, 0x0b, 0xe3,
  0x09, 0xfb, 0xf4, 0xd9, 0xdd, 0xee, 0x0f, 0x22, 0x61, 0x18, 0xfd, 0x12,
  0xdd, 0xb7, 0x06, 0x04, 0x5d, 0xfe, 0x3e, 0x01, 0xd3, 0xd1, 0x00, 0x1b,
  0x5b, 0x17, 0x13, 0x16, 0xed, 0xf7, 0x0b, 0xf4, 0x2d, 0xf7, 0x08, 0xff,
  0x2a, 0xe7, 0x0f, 0xfb, 0x0c, 0x0c, 0xf9, 0x05, 0x26, 0x09, 0x17, 0x04,
  0x28, 0xe6, 0x3c, 0x09, 0xfe, 0x24, 0xea, 0x13, 0x1c, 0x20, 0x22, 0x22,
  0xfe, 0x00, 0x09, 0xe4, 0x09, 0x04, 0x28, 0x11, 0x11, 0xed, 0xf8, 0xde,
  0x11, 0xdd, 0xe7, 0x04, 0x14, 0xf5, 0xed, 0xfe, 0xe0, 0x22, 0xde, 0xfc,
  0xf9, 0x06, 0x15, 0x02, 0x0d, 0x03, 0x19, 0x00, 0x0b, 0x09, 0xf5, 0xf6,
  0x05, 0xe3, 0x09, 0xff, 0xf0, 0xf2, 0xf4, 0xf7, 0x53, 0xe4, 0x1f, 0xec,
  0xee, 0xf3, 0xe1, 0xfe, 0x24, 0xea, 0x29, 0x33, 0x0f, 0x11, 0x2c, 0xe9,
  0x00, 0x10, 0x0f, 0xef, 0xdd, 0xf3, 0x17, 0xf5, 0x32, 0xe9, 0xf3, 0x07,
  0x01, 0xea, 0xf0, 0x03, 0xe8, 0xd8, 0xe3, 0x04, 0xf3, 0xf1, 0xe7, 0xfe,
  0xd4, 0xdb, 0xe6, 0xf6, 0x02, 0xe1, 0xe8, 0xfd, 0xf0, 0x00, 0x03, 0xf0,
  0xde, 0xd7, 0x04, 0x0e, 0x1c, 0xf5, 0xf1, 0xee, 0xde, 0xce, 0x15, 0xf0,
  0x42, 0xef, 0x00, 0x0a, 0xfa, 0xe3, 0xda, 0x2e, 0x4f, 0x01, 0x16, 0xe9,
  0xe5, 0xcf, 0xc4, 0x07, 0x3b, 0x14, 0x01, 0x09, 0xf9, 0xee, 0xd8, 0xd7,
  0x35, 0xee, 0x02, 0x00, 0xf3, 0xec, 0xd7, 0x0b, 0x19, 0xef, 0x0b, 0xef,
  0x1c, 0x03, 0xf6, 0x29, 0x0e, 0x0a, 0x12, 0x0f, 0x17, 0xe7, 0xf4, 0x29,
  0x51, 0xee, 0x0f, 0xf9, 0xf4, 0x00, 0xfb, 0x08, 0x16, 0x05, 0x0b, 0x0a,
  0xee, 0xde, 0xd3, 0x09, 0x0f, 0xde, 0xfb, 0x1a, 0x09, 0xf1, 0x20, 0x15,
  0x06, 0xde, 0x0a, 0x06, 0x13, 0xf6, 0xde, 0x00, 0xfe, 0x07, 0x03, 0xea,
  0xff, 0xe1, 0xff, 0x07, 0x09, 0xee, 0xe9, 0xe7, 0xfd, 0xe6, 0xe2, 0xf4,
  0x24, 0x29, 0x15, 0x1c, 0xee, 0x07, 0xf8, 0xfc, 0x0d, 0xfc, 0x18, 0x0e,
  0xef, 0xe6, 0xe0, 0xf6, 0x06, 0x10, 0x18, 0xf5, 0xe4, 0xff, 0xf7, 0xfc,
  0x0e, 0xed, 0x03, 0x01, 0x04, 0xfa, 0xeb, 0xf6, 0xe4, 0xe1, 0x15, 0x11,
  0xeb, 0xe0, 0xeb, 0x07, 0xf6, 0x16, 0xee, 0x17, 0xea, 0xdd, 0x18, 0x11,
  0xe9, 0xf1, 0x01, 0xf1, 0xf1, 0xd7, 0xff, 0x06, 0xff, 0xf0, 0xe6, 0x03,
  0xda, 0xd9, 0xf9, 0xf6, 0x11, 0x11, 0x0d, 0x14, 0xdf, 0xd4, 0x0d, 0xe4,
  0x40, 0x12, 0x09, 0xdd, 0xf1, 0xef, 0xe6, 0xee, 0x3c, 0x06, 0xf6, 0x10,
  0xea, 0x15, 0xfe, 0x0e, 0xf5, 0x04, 0x02, 0xfa, 0x0a, 0xea, 0x11, 0x01,
  0x07, 0xf6, 0x03, 0xef, 0x1b, 0x12, 0x1f, 0xe8, 0x23, 0x17, 0xfb, 0x0c,
  0xf9, 0xff, 0xe5, 0x0b, 0x20, 0xe2, 0x0b, 0x03, 0x15, 0xff, 0xf7, 0xf4,
  0xf9, 0x16, 0x17, 0xfc, 0xe4, 0xf7, 0xe9, 0xed, 0xfc, 0xf6, 0xdd, 0x20,
  0xfb, 0xec, 0xe5, 0x0d, 0x08, 0x11, 0x22, 0x22, 0x12, 0x0c, 0x05, 0x25,
  0x0c, 0x28, 0x2a, 0x14, 0x07, 0x17, 0xfb, 0xee, 0x0b, 0x14, 0xfc, 0xec,
  0xeb, 0x13, 0xee, 0xee, 0x2b, 0x20, 0x1b, 0xdd, 0xe0, 0x0c, 0x20, 0x01,
  0x04, 0xf5, 0x13, 0x1f, 0x06, 0xf7, 0x09, 0x05, 0x20, 0xe7, 0x1c, 0xee,
  0xf9, 0xee, 0x10, 0x0a, 0x1c, 0x01, 0xef, 0xfa, 0x1c, 0xd8, 0xf0, 0xef,
  0xe7, 0xf4, 0xdd, 0xe7, 0x1a, 0x05, 0xf7, 0xec, 0xe0, 0xef, 0xd8, 0xd3,
  0xd1, 0x03, 0xd9, 0x02, 0x04, 0xf5, 0x2b, 0xeb, 0xe4, 0xf2, 0x26, 0x16,
  0xe4, 0xce, 0xef, 0x0c, 0x1b, 0x30, 0x01, 0x03, 0x00, 0x2e, 0xfe, 0x09,
  0x13, 0x1b, 0x28, 0x15, 0x0a, 0x01, 0xd5, 0x1a, 0x0a, 0x23, 0xf7, 0x12,
  0xfa, 0xd5, 0xfe, 0x15, 0x08, 0x0d, 0xf8, 0x05, 0xee, 0x28, 0x10, 0x13,
  0x12, 0xf6, 0xcf, 0x06, 0x05, 0x1c, 0x07, 0xd9, 0x18, 0x1a, 0x04, 0x0c,
  0xfa, 0x1f, 0x22, 0xf6, 0xe9, 0x09, 0x07, 0x11, 0xf5, 0x0a, 0x21, 0xe8,
  0x03, 0x32, 0xf0, 0x06, 0x00, 0x1f, 0x04, 0xf1, 0xf6, 0x36, 0xe3, 0x00,
  0x01, 0x01, 0xf9, 0xeb, 0x14, 0x16, 0x08, 0xfc, 0xf8, 0x11, 0xfd, 0x09,
  0x29, 0x16, 0x0a, 0x04, 0xef, 0x0e, 0xfa, 0xf6, 0x1e, 0xf1, 0xff, 0x0a,
  0xfd, 0x1c, 0xef, 0xf3, 0x28, 0x13, 0xe1, 0xf7, 0x01, 0xe7, 0x11, 0xd1,
  0x0e, 0x23, 0x27, 0x03, 0x08, 0x25, 0xfd, 0xfe, 0xd7, 0x22, 0xee, 0xf2,
  0xee, 0x0d, 0xf2, 0x31, 0xe7, 0xfc, 0x13, 0x0c, 0xee, 0x11, 0xe2, 0x04,
  0xe5, 0x08, 0xcc, 0xff, 0xfc, 0xec, 0xe2, 0xfb, 0xe2, 0xea, 0xd2, 0xec,
  0x01, 0xe9, 0x02, 0x11, 0x01, 0xfb, 0xf6, 0x01, 0xf4, 0x15, 0x10, 0x0e,
  0xfc, 0xee, 0x32, 0x1a, 0xc0, 0xfc, 0x02, 0xf5, 0xec, 0xfb, 0x02, 0x08,
  0xe4, 0x09, 0xe7, 0x01, 0x16, 0xfa, 0xfa, 0x01, 0x10, 0x24, 0x04, 0x1c,
  0xdc, 0xeb, 0xf2, 0xf6, 0x0f, 0xd6, 0xd3, 0xe6, 0xf3, 0xfe, 0x0a, 0x0c,
  0xee, 0x21, 0xef, 0x0f, 0xe9, 0x06, 0x11, 0xfe, 0x07, 0xfc, 0xed, 0x01,
  0xef, 0x18, 0xee, 0x23, 0xf7, 0xfa, 0xf4, 0xf6, 0x1d, 0xf2, 0x01, 0x30,
  0xfe, 0x0f, 0x20, 0xdb, 0x1c, 0x23, 0xe1, 0x00, 0x16, 0xf5, 0x15, 0xe6,
  0x21, 0x2c, 0x03, 0x17, 0xfc, 0x1f, 0x34, 0xe9, 0x37, 0x29, 0x17, 0x0b,
  0xf0, 0xe9, 0x22, 0xef, 0x2e, 0x08, 0x01, 0x1d, 0x0b, 0x2b, 0x31, 0xf8,
  0x24, 0xfa, 0xf3, 0x24, 0x14, 0xf4, 0x10, 0x13, 0x0c, 0x09, 0xf9, 0x08,
  0xea, 0x15, 0xf8, 0xfc, 0x23, 0xfc, 0xe5, 0xfe, 0xfb, 0x14, 0xfc, 0x04,
  0xf9, 0xdd, 0xfd, 0x1d, 0xf6, 0xdd, 0x00, 0x24, 0xd3, 0xff, 0x03, 0x22,
  0xf0, 0x02, 0xec, 0x12, 0xf7, 0xdc, 0xf9, 0xfe, 0xe6, 0xfb, 0xfd, 0x16,
  0xfe, 0xed, 0x0b, 0x12, 0x02, 0x11, 0x14, 0xe6, 0xfa, 0x07, 0x1a, 0xe3,
  0x09, 0x02, 0xf8, 0x03, 0x16, 0xe3, 0x1b, 0xfd, 0xea, 0xde, 0x05, 0xf1,
  0xe8, 0x07, 0xf7, 0xec, 0x05, 0xe0, 0xf0, 0xfa, 0x17, 0xe4, 0xe8, 0xdc,
  0x12, 0x02, 0xf5, 0x06, 0xfa, 0x0d, 0xed, 0xf4, 0x03, 0xf2, 0xf9, 0x10,
  0xda, 0x13, 0x12, 0xe9, 0x01, 0x0e, 0xef, 0x01, 0x0b, 0x1b, 0xff, 0xc8,
  0x1b, 0x0e, 0xf1, 0xec, 0xfe, 0x0b, 0x05, 0xe6, 0x11, 0x0b, 0x06, 0xe5,
  0x05, 0x30, 0x1b, 0x03, 0xfd, 0xd3, 0x0d, 0xfb, 0x0d, 0x0b, 0x00, 0x23,
  0x19, 0xe7, 0x13, 0xe8, 0x0b, 0x1f, 0xe4, 0x24, 0x18, 0xfa, 0x3d, 0xe8,
  0x1e, 0xe6, 0x21, 0x0e, 0x0d, 0xe6, 0x4d, 0x06, 0xe3, 0x12, 0xe6, 0x08,
  0x23, 0xfc, 0x14, 0xc7, 0x08, 0xdc, 0x27, 0xea, 0x11, 0x15, 0x10, 0x21,
  0x07, 0xef, 0xe5, 0x11, 0xec, 0xf5, 0xf2, 0x0b, 0x09, 0xe2, 0xf4, 0x10,
  0xf9, 0xf8, 0xf0, 0xe1, 0xeb, 0x00, 0xec, 0xf2, 0xfd, 0xee, 0x04, 0xfe,
  0x0d, 0xd2, 0xcf, 0x17, 0xf4, 0x16, 0xff, 0xf2, 0x00, 0xe0, 0xf2, 0xea,
  0x01, 0x14, 0xe6, 0x0d, 0x14, 0x02, 0xff, 0xfa, 0x05, 0xf1, 0x03, 0x02,
  0x04, 0x34, 0xfc, 0xe1, 0x01, 0xf4, 0x02, 0x05, 0x0d, 0xfe, 0x14, 0x1f,
  0x10, 0x0b, 0x1e, 0xfe, 0xff, 0xe3, 0xe1, 0xd1, 0x20, 0x0b, 0xed, 0xdd,
  0xfa, 0xf1, 0xe9, 0xc5, 0x0b, 0xe7, 0x16, 0xf7, 0x26, 0xd7, 0xe7, 0xd8,
  0x06, 0xdf, 0xe0, 0x1c, 0xf9, 0xe0, 0xf4, 0xf3, 0x04, 0x14, 0xe7, 0x18,
  0xe0, 0xf5, 0xd6, 0xd9, 0x1e, 0x15, 0x02, 0xde, 0xe1, 0xf1, 0x1b, 0xf2,
  0x25, 0xf3, 0xf9, 0xe9, 0x07, 0x15, 0x0b, 0x07, 0x1a, 0x0b, 0x1e, 0xf5,
  0x02, 0x26, 0xe6, 0x0a, 0x23, 0x08, 0x57, 0x08, 0x1a, 0x10, 0x26, 0x29,
  0x24, 0x2f, 0x4a, 0xcc, 0xef, 0xf1, 0xe9, 0x0f, 0x1e, 0xdd, 0x29, 0x04,
  0x00, 0xc4, 0x09, 0xfe, 0xf1, 0xf0, 0xd8, 0xff, 0xff, 0xd7, 0x0d, 0x02,
  0xfe, 0x0d, 0xe3, 0x23, 0xf4, 0xd6, 0x01, 0xe8, 0xe7, 0xeb, 0xc3, 0xfc,
  0x13, 0xf0, 0x04, 0xfd, 0x19, 0x24, 0xf8, 0xef, 0x04, 0xc1, 0x2a, 0xf4,
  0x01, 0xeb, 0xf2, 0x08, 0x0f, 0xd7, 0x13, 0xe2, 0x05, 0x08, 0xf5, 0x09,
  0x0d, 0xf0, 0x04, 0xe6, 0xfa, 0xe4, 0x03, 0xdc, 0xfd, 0x02, 0xeb, 0xf2,
  0xfa, 0xd5, 0xf3, 0xf4, 0xf4, 0x2b, 0x19, 0x15, 0xe1, 0xf5, 0xe5, 0xef,
  0xea, 0x08, 0xfc, 0xf6, 0x14, 0xe4, 0xfb, 0xfe, 0x0b, 0xcd, 0xd1, 0xec,
  0x20, 0x17, 0xfa, 0xf4, 0x43, 0xc5, 0x1f, 0xc2, 0xfc, 0xe2, 0x0f, 0x1a,
  0x5a, 0xdf, 0x1c, 0xd1, 0xe7, 0xe8, 0xd8, 0xd9, 0x02, 0xe3, 0xee, 0xb5,
  0xfb, 0x16, 0xdb, 0xf7, 0xfb, 0xd9, 0x12, 0xe2, 0xf1, 0x0b, 0x11, 0xda,
  0xe0, 0xdc, 0xe0, 0xf5, 0x2b, 0xf1, 0x0b, 0xf0, 0xe6, 0x18, 0xe9, 0x26,
  0x0f, 0x03, 0xf7, 0x03, 0xff, 0x24, 0x2c, 0x2b, 0x28, 0x03, 0x21, 0x08,
  0x1b, 0xf8, 0x1a, 0x26, 0x37, 0xfb, 0x50, 0xda, 0x11, 0xfa, 0x0a, 0x28,
  0x2a, 0xf5, 0x24, 0xf2, 0x30, 0xe5, 0xd3, 0x20, 0x02, 0xec, 0xf4, 0xc5,
  0xf8, 0xb8, 0xf3, 0xd1, 0xf7, 0xec, 0xf9, 0xdb, 0x0c, 0xe9, 0x0d, 0xe5,
  0xf8, 0xe1, 0xe6, 0xfe, 0x26, 0xfa, 0x05, 0xeb, 0x00, 0xfa, 0xbc, 0xec,
  0xdf, 0xca, 0xe2, 0xd9, 0x0a, 0xf5, 0xf3, 0xf5, 0x0e, 0xd3, 0x18, 0xda,
  0x0e, 0xf3, 0xcb, 0xf8, 0xe9, 0xdc, 0xeb, 0xbd, 0xf6, 0xfc, 0xf3, 0xf1,
  0xf6, 0x01, 0xe8, 0xe0, 0xf0, 0x07, 0xf5, 0xf8, 0xf7, 0x1e, 0xfb, 0x24,
  0xf5, 0xf2, 0x1b, 0xdd, 0x1a, 0x14, 0x07, 0x0c, 0x07, 0xe3, 0xf3, 0xfc,
  0x21, 0xd4, 0xea, 0xaf, 0x34, 0x09, 0xfc, 0x1d, 0x38, 0xba, 0x09, 0xa8,
  0x17, 0x00, 0x29, 0x24, 0x77, 0xcd, 0xe7, 0xe0, 0x05, 0xfe, 0xdd, 0xf4,
  0x2a, 0x07, 0x03, 0xf3, 0xde, 0xec, 0xe8, 0xd4, 0x23, 0xc3, 0xdb, 0xfc,
  0xf9, 0xf3, 0xe3, 0xf7, 0x15, 0xf5, 0xed, 0x11, 0x09, 0xfb, 0xf3, 0x0f,
  0xd7, 0xe4, 0x0a, 0x30, 0x21, 0xf9, 0x34, 0x02, 0xec, 0xf9, 0xc8, 0x56,
  0x26, 0xf7, 0x4b, 0x17, 0xed, 0x1c, 0xe1, 0x6c, 0x2b, 0xec, 0x39, 0xf8,
  0x02, 0xe8, 0x10, 0x18, 0x25, 0xdf, 0x1f, 0x08, 0x2e, 0xe2, 0x12, 0x05,
  0xff, 0x0a, 0xf0, 0x0b, 0x04, 0xc5, 0xfe, 0x00, 0xe1, 0xf2, 0xcf, 0xd5,
  0xf5, 0xe6, 0xeb, 0xdc, 0xf2, 0xfe, 0xc5, 0xcd, 0x27, 0xe7, 0x0a, 0xfb,
  0x02, 0x12, 0xe2, 0xf2, 0xed, 0x9e, 0xda, 0x07, 0x05, 0xee, 0xec, 0xf3,
  0x16, 0xef, 0xd4, 0xed, 0x06, 0x22, 0xd7, 0xca, 0x21, 0xfd, 0xc1, 0xe4,
  0xf4, 0x01, 0xe8, 0x19, 0xfb, 0x12, 0xd7, 0xe0, 0x07, 0xf8, 0xf3, 0x0a,
  0x16, 0x30, 0x26, 0xe9, 0x0a, 0xe2, 0x25, 0xd0, 0xf6, 0x0f, 0xf7, 0x00,
  0x38, 0x0f, 0x06, 0x0e, 0x20, 0xdf, 0x13, 0xd1, 0xfe, 0xf3, 0x0e, 0x36,
  0x46, 0xc0, 0xf8, 0xea, 0x2a, 0xee, 0x0a, 0x3b, 0x76, 0xf0, 0xfe, 0xe3,
  0xef, 0x15, 0xeb, 0xf4, 0x35, 0xf9, 0xfc, 0x09, 0xf4, 0x19, 0xd0, 0xf2,
  0x0e, 0x05, 0xf3, 0xf4, 0x03, 0xe1, 0xf0, 0xdb, 0x00, 0xe2, 0xe9, 0x30,
  0x09, 0xd3, 0x1b, 0x13, 0xe5, 0xe0, 0xd1, 0x14, 0x2e, 0x1f, 0x20, 0x28,
  0x07, 0x29, 0xf6, 0x40, 0x33, 0x09, 0x2e, 0xe2, 0xe6, 0x20, 0x01, 0x58,
  0x29, 0xfd, 0x25, 0xf1, 0x14, 0x0a, 0x20, 0x39, 0x0a, 0x05, 0x39, 0xdf,
  0x12, 0x11, 0x02, 0x11, 0x07, 0xf4, 0x27, 0xfa, 0x0b, 0xd2, 0xd4, 0xf9,
  0xe1, 0x29, 0xe0, 0xc9, 0x0b, 0xd7, 0xee, 0x02, 0xc3, 0x0c, 0xc5, 0xe7,
  0x11, 0xf3, 0x20, 0xf0, 0xdd, 0x02, 0xe4, 0xd6, 0xf7, 0xc4, 0xe5, 0x20,
  0xeb, 0xde, 0xf5, 0xe0, 0xf3, 0xeb, 0x16, 0xe8, 0xd7, 0x1b, 0xf7, 0xe3,
  0x11, 0x0f, 0xf9, 0xcf, 0x0b, 0x04, 0xf2, 0x04, 0xea, 0xf6, 0xe8, 0xb8,
  0x0f, 0xdc, 0xfc, 0xd9, 0x04, 0x27, 0xf0, 0xce, 0x0f, 0xf3, 0x10, 0xf1,
  0x10, 0x11, 0x32, 0xee, 0x18, 0xef, 0xe3, 0xef, 0x15, 0xdd, 0xf5, 0xad,
  0x2c, 0x04, 0x1a, 0x26, 0x5a, 0xd8, 0x21, 0xde, 0x0e, 0xf9, 0x39, 0x3b,
  0x7c, 0xfa, 0xef, 0x08, 0xcc, 0x04, 0xd4, 0xe3, 0x25, 0xfa, 0xe5, 0xde,
  0x03, 0xd7, 0xe0, 0xbb, 0xff, 0xd4, 0x09, 0x1b, 0x0d, 0x06, 0x0e, 0xf9,
  0xec, 0xe3, 0xf5, 0x33, 0x02, 0x01, 0xed, 0x11, 0xd1, 0xee, 0xfb, 0x3e,
  0x1d, 0x0a, 0x12, 0x17, 0xe9, 0x0a, 0xdf, 0x4f, 0xfc, 0x11, 0x04, 0x16,
  0x08, 0x1b, 0x0f, 0x3a, 0x1e, 0x02, 0x2d, 0xf7, 0xf9, 0x01, 0xe9, 0x22,
  0x02, 0x0a, 0x2d, 0xca, 0x08, 0xf5, 0x1a, 0x00, 0xfa, 0xfd, 0x05, 0xd9,
  0xff, 0xca, 0xd8, 0x0b, 0xdd, 0xf1, 0xb3, 0x0e, 0x37, 0xda, 0xe0, 0xf2,
  0xef, 0xf6, 0xd5, 0xcb, 0x00, 0x04, 0x1c, 0x05, 0xed, 0x09, 0xd8, 0xde,
  0xf6, 0xde, 0xfa, 0x13, 0xdd, 0xe2, 0x09, 0x00, 0x1f, 0x09, 0xf9, 0xea,
  0xd7, 0x05, 0xe2, 0x06, 0x04, 0x13, 0xe6, 0xde, 0xf6, 0x08, 0xe6, 0xd9,
  0xe3, 0x1e, 0xe0, 0xeb, 0xf6, 0x25, 0x01, 0xf1, 0x18, 0x3a, 0x25, 0xe5,
  0x11, 0x15, 0xe9, 0xd4, 0xf4, 0x0c, 0x33, 0xcb, 0x1e, 0xde, 0xc7, 0xfa,
  0x33, 0xee, 0xe0, 0xce, 0x1f, 0x11, 0x04, 0x48, 0x30, 0xd0, 0xd9, 0x07,
  0x1e, 0x1a, 0x2e, 0x18, 0x76, 0xf4, 0xfb, 0x02, 0xe4, 0xff, 0xf3, 0x01,
  0x31, 0xe5, 0x17, 0xf3, 0xe6, 0xce, 0xe7, 0xfa, 0x1a, 0xd2, 0xf7, 0x1b,
  0x04, 0xd5, 0xf0, 0xdf, 0xeb, 0xf5, 0xd2, 0x41, 0xfc, 0xf9, 0xef, 0xf7,
  0x00, 0xf1, 0xff, 0x2c, 0x35, 0x1f, 0x18, 0xe6, 0x11, 0x09, 0x14, 0x62,
  0x41, 0x06, 0x28, 0x17, 0xec, 0x00, 0xfc, 0x2e, 0x2e, 0x1e, 0x33, 0x02,
  0xfc, 0xf5, 0xd3, 0x31, 0x17, 0xe6, 0x03, 0x02, 0x01, 0xfc, 0xf9, 0x0a,
  0x01, 0xfe, 0x32, 0xca, 0x37, 0xdd, 0xda, 0x16, 0xaf, 0x1a, 0xa9, 0xd4,
  0x2a, 0xfa, 0x06, 0xf6, 0xee, 0x07, 0xf9, 0xe6, 0xe9, 0x1a, 0xd8, 0x0a,
  0xee, 0x13, 0xd8, 0xd6, 0xda, 0xf7, 0xf8, 0xf9, 0xe9, 0x1b, 0xd6, 0xe5,
  0x0d, 0xf3, 0xfa, 0xed, 0xe3, 0xf5, 0xdf, 0x15, 0x0b, 0x19, 0x09, 0xd3,
  0x0d, 0xe9, 0xf1, 0xfe, 0xf1, 0x07, 0xd5, 0xe9, 0x03, 0xe7, 0xfe, 0x19,
  0x04, 0x16, 0x20, 0x0c, 0x10, 0xe2, 0xf5, 0xe5, 0xfc, 0x06, 0xed, 0x04,
  0x16, 0x04, 0xf3, 0xd1, 0x17, 0xe6, 0x07, 0xf3, 0x36, 0xd5, 0x1d, 0x3b,
  0x68, 0xc2, 0xfb, 0x0d, 0xe2, 0xec, 0x3d, 0x1b, 0x7f, 0xf5, 0x17, 0xde,
  0xc0, 0x0b, 0xdc, 0xd5, 0x19, 0x1a, 0x10, 0x27, 0x0c, 0x17, 0xff, 0xe6,
  0xf0, 0xd5, 0xdd, 0x16, 0x09, 0x0d, 0xf1, 0xd8, 0xcf, 0xe8, 0xde, 0x32,
  0x0d, 0x07, 0xe2, 0xf3, 0xd7, 0x03, 0xdf, 0x63, 0x35, 0xf0, 0x18, 0x0f,
  0xed, 0xf4, 0xd3, 0x5b, 0x24, 0xe9, 0x32, 0xec, 0xd2, 0xec, 0xfe, 0x33,
  0x14, 0xef, 0x27, 0xd9, 0x0a, 0x00, 0x22, 0x1c, 0x0f, 0x24, 0xfc, 0xf2,
  0x0d, 0x04, 0xfa, 0x0f, 0xf1, 0xfe, 0xfd, 0x01, 0x20, 0xed, 0xe9, 0xf2,
  0xb4, 0x04, 0xe5, 0xeb, 0x08, 0x09, 0xf3, 0x01, 0xbc, 0x21, 0xe2, 0xe0,
  0x02, 0x0c, 0xfa, 0x0a, 0xf0, 0xf0, 0xe8, 0xdf, 0xf7, 0xf9, 0xc5, 0xed,
  0xef, 0xec, 0xdc, 0xea, 0x00, 0x0a, 0xf4, 0xe3, 0xc7, 0x04, 0xd8, 0x00,
  0x00, 0x09, 0xf0, 0xd7, 0xeb, 0xdc, 0xfa, 0x27, 0xfd, 0xf5, 0x12, 0x06,
  0xfc, 0xed, 0x11, 0xfc, 0xed, 0x0d, 0x1e, 0x07, 0xf5, 0xf9, 0xfd, 0xfe,
  0x01, 0x07, 0x0d, 0xf8, 0x10, 0x0c, 0x08, 0x0b, 0x19, 0xe9, 0xed, 0xe7,
  0xf4, 0x00, 0x07, 0x2e, 0x40, 0xc6, 0x03, 0x0f, 0xfc, 0xf2, 0x2a, 0x31,
  0x48, 0xe7, 0x11, 0x01, 0xac, 0x07, 0x22, 0xf6, 0x38, 0x00, 0x16, 0x1e,
  0xec, 0xec, 0xe4, 0xd3, 0xeb, 0xf5, 0xfb, 0x28, 0x03, 0x17, 0xd5, 0xea,
  0xd1, 0xe6, 0xcd, 0x05, 0x16, 0x22, 0xe9, 0x08, 0xdc, 0xf6, 0xe4, 0x2c,
  0x1e, 0x05, 0x0a, 0xfa, 0x01, 0xfd, 0x19, 0x38, 0x1c, 0x06, 0x23, 0x0c,
  0x09, 0x0b, 0x1a, 0x17, 0x1f, 0x01, 0x1a, 0xf4, 0xfb, 0x02, 0xee, 0x10,
  0x02, 0xe5, 0x1d, 0xf5, 0x0a, 0x0c, 0xe5, 0xfa, 0x08, 0xe7, 0x0b, 0xe1,
  0x13, 0xf6, 0xe1, 0xd3, 0xc4, 0x2d, 0xf1, 0x0f, 0xe4, 0x05, 0xf7, 0xda,
  0xd1, 0x2d, 0xcd, 0xf6, 0xfb, 0x0f, 0xd9, 0x33, 0xe9, 0x06, 0xca, 0xd5,
  0xf8, 0xf3, 0xf6, 0x09, 0xe3, 0xf5, 0xe9, 0xed, 0xef, 0xf6, 0xe2, 0xd5,
  0xac, 0xd6, 0x26, 0xf4, 0x0c, 0xfb, 0xe8, 0x1c, 0x08, 0x04, 0xf1, 0xea,
  0x06, 0x02, 0xe6, 0xe6, 0xf8, 0xf9, 0x0b, 0x07, 0x11, 0x1f, 0xfc, 0x01,
  0x36, 0xe7, 0x12, 0xd1, 0xe1, 0xf1, 0xff, 0x23, 0xe6, 0xe0, 0x02, 0x16,
  0xf9, 0xfc, 0xd0, 0xe8, 0xd5, 0xf1, 0xe9, 0x24, 0x48, 0xa5, 0xcd, 0x07,
  0xbf, 0x1a, 0x15, 0x25, 0x6e, 0xf6, 0x18, 0x09, 0xb5, 0x25, 0x1e, 0x1f,
  0x04, 0xf3, 0xf7, 0x0d, 0xe3, 0x0f, 0x0b, 0xe6, 0xd4, 0xbf, 0xdf, 0x13,
  0x10, 0xf1, 0xcb, 0xd7, 0xf2, 0xe0, 0x03, 0x29, 0x0c, 0xfa, 0xc8, 0xfc,
  0x0c, 0x08, 0x05, 0x1b, 0x23, 0xd5, 0x1d, 0xea, 0x07, 0xfd, 0xe1, 0x47,
  0x25, 0x00, 0x28, 0xfe, 0xdf, 0x11, 0x28, 0x40, 0x0c, 0xd0, 0x1e, 0x02,
  0x00, 0x1b, 0x2c, 0x1a, 0x01, 0xd2, 0x14, 0x16, 0x12, 0xec, 0x00, 0x0c,
  0xe7, 0x02, 0xfe, 0xf3, 0x0d, 0x0f, 0xf1, 0xf8, 0xc5, 0x24, 0xed, 0xcf,
  0xf1, 0x10, 0x07, 0x18, 0xe1, 0x0a, 0xd7, 0xed, 0xf1, 0xf8, 0xfb, 0x02,
  0xea, 0x12, 0xe6, 0xd7, 0xdf, 0xf9, 0xf4, 0xf1, 0xdf, 0xf0, 0xed, 0xf8,
  0xd9, 0xfb, 0x01, 0xe8, 0xcf, 0x0a, 0xf8, 0xe1, 0xfc, 0x25, 0x08, 0xfd,
  0xf3, 0x1d, 0xff, 0x19, 0xef, 0xe8, 0xe6, 0xf6, 0x11, 0x08, 0x16, 0x0f,
  0xe6, 0x07, 0x01, 0xf7, 0x1c, 0x27, 0xfd, 0xcf, 0xe3, 0xf8, 0x15, 0x02,
  0x0a, 0xfd, 0x15, 0xe3, 0x05, 0xc5, 0x0f, 0xfc, 0xcf, 0xe6, 0x01, 0x39,
  0x2b, 0xdb, 0xf3, 0xf9, 0xd9, 0x08, 0xfb, 0xfa, 0x5b, 0xe8, 0xec, 0x07,
  0xa4, 0xfc, 0xe1, 0xf3, 0x0b, 0xda, 0x06, 0x0f, 0x03, 0x00, 0x0c, 0xe4,
  0xe0, 0xb5, 0xf1, 0x08, 0xee, 0xe2, 0xe3, 0xeb, 0xee, 0xce, 0xf6, 0x38,
  0x18, 0xf9, 0xca, 0x07, 0xbb, 0xf2, 0xf0, 0x32, 0x21, 0x00, 0x11, 0x0d,
  0xdc, 0xd4, 0x11, 0x3f, 0x0d, 0x1c, 0x35, 0x25, 0x12, 0x1c, 0x1f, 0x4b,
  0x23, 0xef, 0xfd, 0xfb, 0xd4, 0x0e, 0xe8, 0x13, 0x01, 0xf2, 0x33, 0xed,
  0x19, 0x21, 0x0e, 0xfc, 0x1d, 0xda, 0x28, 0xee, 0x14, 0x09, 0xea, 0xef,
  0xdd, 0xf6, 0xf9, 0x14, 0xf0, 0x23, 0x04, 0xea, 0xce, 0xe8, 0xe4, 0xee,
  0xef, 0x1a, 0x11, 0xf1, 0xf2, 0x03, 0x16, 0xfd, 0xee, 0xf3, 0xfe, 0xfc,
  0xf9, 0xe6, 0xe2, 0x0b, 0x10, 0x06, 0x11, 0xec, 0xab, 0x21, 0x0d, 0xf6,
  0xfc, 0x11, 0x29, 0xf0, 0xdc, 0x1c, 0x0c, 0xff, 0x10, 0x00, 0xf7, 0xfe,
  0xfd, 0x01, 0xed, 0xd3, 0xf3, 0x21, 0xfa, 0x0f, 0xd9, 0xdd, 0xfb, 0xd8,
  0xf9, 0xf4, 0xf3, 0x15, 0x18, 0xf0, 0x0d, 0xff, 0xfa, 0xde, 0xe5, 0xf2,
  0xb2, 0xeb, 0xef, 0x1d, 0x05, 0xd9, 0x25, 0x0b, 0xc2, 0x0e, 0xf2, 0x2a,
  0x50, 0xd9, 0xfe, 0x06, 0xcf, 0xff, 0xf9, 0x13, 0x16, 0xf1, 0x14, 0x30,
  0x07, 0xfd, 0x1e, 0xdd, 0xde, 0xca, 0x08, 0x11, 0x26, 0x16, 0x1b, 0xfd,
  0xf5, 0xe2, 0x0d, 0x25, 0x18, 0xe4, 0xdd, 0xd7, 0x12, 0xfb, 0xef, 0x2f,
  0x15, 0x03, 0x0c, 0x1e, 0xf7, 0xf9, 0xeb, 0x4c, 0x22, 0x0b, 0x18, 0x0a,
  0xed, 0x1b, 0x32, 0x31, 0x4d, 0xf4, 0x0f, 0xdf, 0xe9, 0x0c, 0x1c, 0x3a,
  0x12, 0xea, 0xf7, 0xf4, 0x02, 0xf9, 0x1d, 0xf7, 0xfb, 0xff, 0x03, 0xf4,
  0x1c, 0x06, 0xe4, 0xcc, 0xc7, 0xf5, 0xfa, 0x0d, 0xd8, 0x27, 0x2a, 0xfc,
  0xd8, 0x06, 0xf6, 0x11, 0xe5, 0xf6, 0x16, 0x06, 0x04, 0x1d, 0xe7, 0xf3,
  0xd3, 0x02, 0x02, 0xf0, 0xe2, 0x31, 0x16, 0x0d, 0xf6, 0x17, 0x07, 0xe2,
  0xd0, 0x25, 0xc4, 0xd9, 0xfa, 0xed, 0x06, 0xe2, 0xd1, 0x1a, 0x09, 0xf7,
  0x0d, 0x10, 0xf0, 0xf0, 0xe7, 0xe3, 0x03, 0xe6, 0xeb, 0xe5, 0xfc, 0x2b,
  0xe7, 0xfc, 0xd2, 0x01, 0xe4, 0x06, 0x2d, 0xf2, 0xef, 0xf4, 0x1d, 0xec,
  0xf8, 0xd8, 0xe4, 0xd1, 0xc8, 0xf1, 0xd6, 0x12, 0x21, 0xc5, 0xe8, 0x17,
  0xa8, 0x1a, 0xfa, 0x11, 0x3b, 0x00, 0xec, 0xf6, 0xdd, 0x09, 0xf0, 0xef,
  0x2c, 0xe0, 0x29, 0xf9, 0x02, 0xdf, 0x2f, 0xd9, 0x09, 0xb3, 0x22, 0x14,
  0x17, 0x05, 0x05, 0xbf, 0xda, 0xdb, 0x00, 0x16, 0x12, 0xf8, 0xe6, 0x15,
  0x12, 0xda, 0xd1, 0x32, 0x07, 0xea, 0x2f, 0xed, 0xf9, 0xf1, 0x03, 0x3f,
  0x31, 0xfc, 0x09, 0x07, 0xdf, 0x22, 0x17, 0x29, 0x31, 0xfa, 0x2a, 0x1c,
  0xda, 0x19, 0x21, 0x32, 0x1e, 0x10, 0x06, 0xed, 0x0e, 0x0e, 0xfa, 0x14,
  0x22, 0x05, 0x05, 0xe5, 0x01, 0x06, 0xcd, 0x02, 0xc3, 0x10, 0x0f, 0xf6,
  0xdd, 0xf3, 0xff, 0x03, 0xc7, 0xe3, 0xf5, 0xd0, 0xcc, 0xee, 0xe9, 0xe4,
  0xed, 0x0e, 0x13, 0xf8, 0xd2, 0xe2, 0x15, 0x0e, 0xe2, 0x0f, 0x0a, 0x1b,
  0xf2, 0xfe, 0xfe, 0xf4, 0xf8, 0xf1, 0xfa, 0xe5, 0x16, 0x08, 0x09, 0xdb,
  0xb3, 0xdc, 0xea, 0x0e, 0x06, 0xff, 0x06, 0x0a, 0x03, 0xf1, 0xe6, 0x28,
  0xe7, 0xef, 0x0f, 0xff, 0xfc, 0x10, 0xfa, 0xcf, 0xd6, 0x0d, 0xee, 0xf7,
  0xe0, 0xff, 0xf0, 0xf5, 0xff, 0xe5, 0x22, 0x14, 0xc0, 0xf4, 0xfd, 0x36,
  0x1c, 0xdb, 0x2d, 0x15, 0xaf, 0xfe, 0xed, 0x3f, 0x4a, 0xe2, 0xe1, 0x2e,
  0xe1, 0xe3, 0x00, 0xe2, 0x20, 0xf8, 0xfd, 0x0e, 0x05, 0x09, 0x18, 0xff,
  0xdc, 0xc4, 0x0b, 0x0d, 0x26, 0xec, 0xed, 0xf7, 0xf4, 0xd3, 0x0d, 0xe6,
  0xfb, 0x0d, 0xd6, 0x0a, 0x00, 0x02, 0x27, 0x55, 0x1e, 0x09, 0x3b, 0x34,
  0xfc, 0xf7, 0x29, 0x5b, 0x3b, 0x04, 0x3a, 0x2d, 0xec, 0x04, 0x14, 0x1c,
  0x10, 0xf3, 0x29, 0xd5, 0xf5, 0x03, 0xeb, 0x29, 0x50, 0x0b, 0x33, 0x09,
  0xe4, 0x09, 0xed, 0x21, 0x21, 0xe9, 0x17, 0x0c, 0x24, 0xf6, 0x0c, 0xfc,
  0xd6, 0xfa, 0xeb, 0x0a, 0x20, 0xf3, 0x22, 0xd8, 0xb5, 0x01, 0xe1, 0x1c,
  0xd7, 0xfa, 0x01, 0x13, 0xd8, 0xfb, 0xef, 0x28, 0x02, 0x05, 0x05, 0xe8,
  0xde, 0xfe, 0xe9, 0x05, 0xd7, 0x07, 0x18, 0xe1, 0xe3, 0xe4, 0xe8, 0xe6,
  0x05, 0x0e, 0x15, 0x0e, 0xdf, 0x0d, 0x13, 0x22, 0x2b, 0x0d, 0xc7, 0x13,
  0xf1, 0x05, 0xdf, 0xed, 0x02, 0xf8, 0xf3, 0xfa, 0xf6, 0xf9, 0xdc, 0xdc,
  0xf4, 0xe3, 0xe1, 0x03, 0xc6, 0x1f, 0xde, 0xe8, 0x1b, 0xdd, 0x14, 0xf9,
  0xb9, 0x14, 0x03, 0x05, 0x03, 0xe6, 0x13, 0xec, 0xc2, 0xfa, 0xc8, 0x2a,
  0xfc, 0xf1, 0x03, 0xfc, 0xec, 0x00, 0x14, 0x0f, 0xf8, 0x13, 0x06, 0x1a,
  0xf8, 0x02, 0xed, 0x04, 0xe3, 0xc9, 0xea, 0xcc, 0x1a, 0x28, 0xf2, 0xe5,
  0xec, 0xd3, 0xf0, 0x05, 0x1e, 0xeb, 0x1a, 0x17, 0xd2, 0xce, 0xf2, 0xfb,
  0x32, 0x13, 0xfb, 0x04, 0xe5, 0xef, 0xf9, 0x1a, 0x23, 0xf3, 0x40, 0xf5,
  0x10, 0x16, 0xd7, 0x39, 0x46, 0x07, 0x42, 0xe6, 0x0f, 0xfc, 0xf6, 0x2f,
  0x42, 0x09, 0xff, 0x13, 0x06, 0xe9, 0xe5, 0x1d, 0x0d, 0x03, 0x2c, 0x0c,
  0xd4, 0xfb, 0x0e, 0xe4, 0xbf, 0xe9, 0xf9, 0xe5, 0x03, 0x1e, 0x18, 0xe8,
  0x0d, 0x12, 0xfd, 0x1b, 0xcd, 0xf3, 0xef, 0x0c, 0xdd, 0x07, 0x0a, 0x04,
  0x14, 0x0d, 0xd5, 0xe4, 0xd2, 0xf4, 0x11, 0x06, 0xf6, 0x1e, 0x03, 0xcc,
  0xc8, 0xea, 0xe8, 0xe8, 0xf7, 0x12, 0xfb, 0x14, 0xd8, 0x00, 0xfb, 0x07,
  0x02, 0xf9, 0xf3, 0xff, 0xe0, 0xdf, 0xf6, 0x03, 0xcd, 0x1a, 0xef, 0x2e,
  0x13, 0xea, 0x32, 0x00, 0xe0, 0x0e, 0x05, 0x02, 0xf6, 0x12, 0xff, 0xec,
  0xfb, 0xc1, 0x02, 0x1c, 0xc7, 0x08, 0xf7, 0x46, 0x25, 0xa5, 0x17, 0x11,
  0xdf, 0x01, 0xf2, 0x00, 0x1e, 0xee, 0x06, 0xe8, 0xe4, 0xf4, 0xe7, 0x0d,
  0x09, 0xe5, 0xfe, 0x22, 0xf5, 0xfe, 0xd8, 0x00, 0xeb, 0xb4, 0xda, 0x0b,
  0x07, 0x0d, 0x15, 0x00, 0xda, 0xbc, 0xd7, 0x13, 0x2b, 0xf0, 0x0c, 0xec,
  0xdc, 0xfb, 0xea, 0x38, 0x15, 0x1c, 0x15, 0x18, 0x1e, 0x00, 0xf9, 0x24,
  0x37, 0xfd, 0x42, 0x24, 0x03, 0x17, 0x1d, 0x04, 0x38, 0x36, 0x08, 0xfa,
  0x1b, 0xf1, 0xfb, 0x2b, 0x47, 0x08, 0x2f, 0x06, 0x15, 0x08, 0xdf, 0x28,
  0xec, 0x23, 0xed, 0x00, 0x12, 0x01, 0xed, 0xd2, 0x0b, 0x02, 0xf7, 0x09,
  0xe6, 0x02, 0xfd, 0xe3, 0xeb, 0x0a, 0xd8, 0x03, 0xe8, 0x15, 0xd4, 0x0d,
  0xd6, 0x05, 0xe6, 0x1e, 0x08, 0xf9, 0x1a, 0x05, 0xce, 0x23, 0x15, 0xf5,
  0x04, 0x18, 0xeb, 0xe3, 0xc8, 0x28, 0xea, 0xff, 0xe5, 0x07, 0x0e, 0xdd,
  0xf6, 0xf0, 0x11, 0x22, 0x0a, 0x04, 0xd7, 0x0e, 0xea, 0xff, 0x15, 0x00,
  0xcc, 0xf4, 0x1b, 0x14, 0xf7, 0x15, 0x0c, 0xe2, 0xcc, 0xe6, 0x16, 0x26,
  0xcb, 0x0b, 0xe4, 0x0e, 0xdc, 0xdb, 0x01, 0xf4, 0xc8, 0x1b, 0x15, 0x13,
  0xfb, 0xcd, 0x23, 0x0e, 0xcb, 0xdd, 0x13, 0x29, 0x1f, 0xe8, 0xfd, 0x21,
  0xf8, 0xe4, 0x09, 0xff, 0x14, 0xcf, 0xfb, 0x1e, 0x36, 0x0a, 0x0c, 0xdf,
  0xe7, 0xcd, 0x17, 0xd3, 0xf4, 0xfe, 0xf1, 0xcf, 0xf5, 0xd7, 0x15, 0xf2,
  0xf1, 0xfb, 0xcb, 0x0e, 0xc2, 0xc6, 0x11, 0x0b, 0x38, 0x19, 0x1e, 0x19,
  0x02, 0xf8, 0x17, 0x37, 0x5f, 0x07, 0x53, 0xf1, 0xce, 0x0f, 0x01, 0x12,
  0x3c, 0x18, 0x27, 0xef, 0xeb, 0xf9, 0x09, 0x04, 0x1b, 0xfa, 0x06, 0xf3,
  0x00, 0xc3, 0xe8, 0x29, 0x22, 0x01, 0x0f, 0xf2, 0x19, 0xed, 0xe0, 0xdf,
  0xdf, 0x02, 0xf6, 0x13, 0xf7, 0x26, 0xd7, 0x1d, 0x04, 0x01, 0xf4, 0xd2,
  0x23, 0xfd, 0xf9, 0x0c, 0x0c, 0xea, 0x02, 0xfa, 0x01, 0x20, 0x14, 0xd5,
  0xde, 0xf7, 0xfe, 0xdb, 0xf1, 0x0b, 0x01, 0xea, 0xea, 0xd5, 0xfb, 0xf8,
  0xdf, 0x12, 0x1d, 0x00, 0xb3, 0xfd, 0x0c, 0x09, 0x1e, 0x13, 0xd5, 0xf9,
  0xf8, 0x12, 0xfa, 0xe4, 0x0b, 0x0d, 0xd2, 0x2f, 0xfd, 0xea, 0x30, 0xdd,
  0xca, 0xc1, 0x1f, 0xfe, 0xe7, 0xeb, 0xf6, 0x1a, 0x0f, 0xe5, 0x24, 0xd1,
  0xd0, 0x08, 0xca, 0x10, 0xe5, 0xe9, 0xf6, 0x13, 0xec, 0x1b, 0xdf, 0x0a,
  0x0c, 0x08, 0xec, 0x0c, 0xe6, 0x05, 0x10, 0x29, 0x0f, 0xfc, 0xdc, 0xe7,
  0x0e, 0xe8, 0xf9, 0x16, 0xfa, 0xd8, 0x04, 0xe0, 0x11, 0x03, 0x00, 0xe1,
  0xc7, 0xc6, 0xe3, 0x19, 0xe8, 0xf8, 0xfc, 0x0c, 0x03, 0xf8, 0xd6, 0x0e,
  0x54, 0xfd, 0x0a, 0x08, 0xf9, 0xe6, 0x15, 0x2c, 0x41, 0xeb, 0x31, 0xde,
  0xe5, 0x08, 0xf0, 0x1a, 0x45, 0x0e, 0x53, 0x03, 0x03, 0xfc, 0x0f, 0x0e,
  0x4c, 0x18, 0xf2, 0x00, 0xe0, 0xe4, 0xf6, 0x07, 0x04, 0xdb, 0xe4, 0xed,
  0xf2, 0xf2, 0xf5, 0xf1, 0xf8, 0x08, 0x0c, 0xe0, 0x03, 0x18, 0xff, 0xde,
  0xfe, 0x0c, 0xfb, 0xf1, 0xfb, 0x06, 0x04, 0xc6, 0xf9, 0x13, 0xef, 0x15,
  0x12, 0x09, 0xe7, 0xdd, 0xe9, 0x15, 0x22, 0xfd, 0xe3, 0x11, 0xef, 0x19,
  0xed, 0xd1, 0x02, 0xea, 0x03, 0x28, 0x09, 0x14, 0xdc, 0x03, 0x16, 0x21,
  0x1e, 0x20, 0x22, 0xf9, 0xe5, 0xfd, 0x23, 0xf3, 0xf7, 0xd7, 0x02, 0xcb,
  0x13, 0xfd, 0xce, 0xd9, 0xcd, 0xb6, 0xfd, 0xe7, 0xe3, 0xe8, 0xd7, 0xf1,
  0x11, 0xb8, 0xf3, 0xed, 0xd2, 0x2e, 0xe1, 0x0c, 0xf8, 0xe3, 0xd8, 0x1e,
  0xd0, 0xfc, 0xfd, 0xdf, 0x30, 0xcb, 0x0b, 0xd8, 0xdc, 0xf0, 0xef, 0xf6,
  0xf7, 0xd0, 0xf0, 0xf3, 0x13, 0xf1, 0xdb, 0x13, 0xd3, 0xcb, 0xdc, 0xff,
  0x0e, 0xeb, 0xef, 0x1f, 0xdd, 0xe9, 0xfb, 0x0e, 0x09, 0xec, 0xca, 0x18,
  0x08, 0xe2, 0x10, 0x35, 0x1a, 0x00, 0x02, 0x31, 0x06, 0x0d, 0xee, 0x19,
  0x48, 0x20, 0x3e, 0x06, 0x05, 0xf7, 0x12, 0x03, 0x54, 0xdf, 0x1a, 0x07,
  0xfc, 0xfc, 0xe7, 0x23, 0x37, 0x2b, 0xee, 0x22, 0xf4, 0xe8, 0xe2, 0xe0,
  0xf9, 0xf5, 0xd6, 0x00, 0x01, 0xeb, 0x0a, 0x05, 0xf1, 0x02, 0x04, 0xfc,
  0xf1, 0x02, 0x0a, 0x12, 0xc3, 0x0c, 0x03, 0xf7, 0xd7, 0x07, 0xca, 0xff,
  0x04, 0xd7, 0xed, 0xfc, 0xfb, 0xf6, 0xda, 0xc8, 0xf9, 0xfe, 0xe2, 0x28,
  0xee, 0x18, 0xfe, 0x0c, 0xe4, 0x21, 0xf8, 0xf2, 0x12, 0xfd, 0xe9, 0xee,
  0x01, 0x25, 0xf2, 0x0c, 0x0b, 0x25, 0x10, 0x16, 0xf9, 0x17, 0x0c, 0xfb,
  0xda, 0xed, 0xee, 0x20, 0x05, 0x22, 0xf1, 0xf1, 0xd8, 0xae, 0x09, 0xd7,
  0xd1, 0x0d, 0xf4, 0xe4, 0xd8, 0xb6, 0xf7, 0xc4, 0xc2, 0x10, 0xe2, 0xf1,
  0xc5, 0xda, 0xfd, 0x09, 0xe7, 0x12, 0xe7, 0x16, 0xfb, 0xdb, 0xea, 0x21,
  0xd4, 0xf0, 0xef, 0x0d, 0xf0, 0xe3, 0x2a, 0x26, 0xed, 0x16, 0xd3, 0x12,
  0xf4, 0xc3, 0xf4, 0xf9, 0xea, 0xc7, 0x25, 0xee, 0x0f, 0xd1, 0xef, 0xfc,
  0xf1, 0x1f, 0xe7, 0x09, 0xc7, 0xdf, 0xf7, 0xfa, 0x22, 0x17, 0xfa, 0xe6,
  0xcd, 0x03, 0x0b, 0xe5, 0x42, 0x1d, 0x26, 0x27, 0xeb, 0x00, 0xfb, 0xea,
  0x37, 0xfe, 0x1e, 0xec, 0xf3, 0xc9, 0x1d, 0xfa, 0x0d, 0x09, 0x26, 0xf9,
  0xd3, 0xc5, 0xeb, 0xe4, 0xfe, 0x0e, 0x1d, 0x06, 0x09, 0xe7, 0x1e, 0xee,
  0xc0, 0x0a, 0xf7, 0x17, 0xca, 0xf1, 0x08, 0xd6, 0xd0, 0xea, 0xde, 0xd5,
  0xf3, 0xe2, 0xf3, 0xef, 0x09, 0x09, 0xfb, 0x14, 0x01, 0xf8, 0x0e, 0xed,
  0x09, 0xfd, 0x1b, 0xe3, 0x02, 0x0f, 0xe7, 0xe1, 0xcd, 0xe2, 0xfe, 0xf5,
  0x15, 0x31, 0x08, 0xdd, 0xe9, 0x08, 0xfa, 0x1c, 0x02, 0xfe, 0xec, 0x07,
  0xfd, 0x0f, 0x21, 0x26, 0xf9, 0x06, 0xcc, 0x2e, 0xe1, 0x22, 0xdc, 0x13,
  0xdd, 0xd2, 0x08, 0x1b, 0xe3, 0xf4, 0xf8, 0x2c, 0x00, 0xd5, 0xea, 0x12,
  0xee, 0xf5, 0xf1, 0xe8, 0xde, 0xd2, 0xec, 0xf2, 0xdf, 0xee, 0x01, 0x25,
  0xd3, 0xf2, 0x00, 0x1d, 0x00, 0xed, 0x0a, 0xe6, 0xd8, 0xe9, 0x25, 0x06,
  0xc8, 0x04, 0xdd, 0xdb, 0xf9, 0xa8, 0xf1, 0xed, 0x0c, 0x20, 0xe6, 0x03,
  0xf1, 0xbd, 0xdb, 0xd8, 0xd6, 0x03, 0xfe, 0xde, 0xe3, 0xc7, 0xfe, 0x02,
  0xf8, 0xed, 0xfc, 0x10, 0xfd, 0xe2, 0x16, 0x16, 0x0f, 0x11, 0x12, 0xe8,
  0xef, 0xfc, 0x32, 0x06, 0x46, 0xfc, 0x05, 0xc4, 0xe2, 0x08, 0x12, 0xe3,
  0xf4, 0x01, 0xe6, 0xe0, 0xda, 0xea, 0xd6, 0xe2, 0xda, 0xd8, 0xff, 0x09,
  0xe7, 0xfa, 0xf6, 0xf4, 0xe7, 0x05, 0x0b, 0xdb, 0xf4, 0x00, 0xfe, 0x05,
  0xed, 0xda, 0xf3, 0x06, 0xe8, 0xf6, 0x00, 0x11, 0xdc, 0x00, 0xf8, 0x0a,
  0xea, 0x09, 0xeb, 0xe5, 0xe9, 0xc8, 0xe4, 0xfe, 0xdb, 0xef, 0xf7, 0x04,
  0x03, 0xe5, 0xe3, 0xfe, 0x11, 0x21, 0xe1, 0x23, 0xd9, 0x08, 0x12, 0xfb,
  0xf2, 0x1e, 0x03, 0x11, 0xce, 0x00, 0xfb, 0x14, 0xec, 0xcc, 0xd3, 0xfa,
  0xe3, 0xf7, 0x07, 0x11, 0xc3, 0xd5, 0xf8, 0xff, 0xeb, 0xea, 0xee, 0xf0,
  0xce, 0xe1, 0x0f, 0x0a, 0xde, 0xe9, 0xe7, 0xe3, 0xdb, 0xe8, 0xcf, 0x08,
  0xd9, 0xfe, 0xf2, 0x00, 0xda, 0xed, 0x28, 0xe1, 0x0f, 0x03, 0xf3, 0xf9,
  0x0a, 0xd7, 0xee, 0x08, 0xfb, 0xdb, 0xf3, 0x27, 0xe6, 0xd9, 0x21, 0x00,
  0xe8, 0xff, 0xfb, 0x15, 0x09, 0xfa, 0x11, 0x06, 0xb5, 0xd2, 0x01, 0xeb,
  0xef, 0x07, 0xed, 0xf8, 0x07, 0xdf, 0x14, 0xe9, 0xeb, 0xf9, 0x18, 0xfc,
  0x11, 0xfe, 0xfa, 0x03, 0xcf, 0xe8, 0x0c, 0x0a, 0x1f, 0x01, 0x17, 0xf2,
  0xec, 0x18, 0xed, 0x14, 0xfa, 0x2e, 0x0b, 0x1a, 0xde, 0xfa, 0x19, 0x14,
  0xe2, 0xcd, 0xf6, 0x08, 0x0f, 0x08, 0xdd, 0xca, 0xcc, 0xf6, 0x20, 0xe5,
  0xe7, 0xed, 0x13, 0x1a, 0xe3, 0x0a, 0xe9, 0x20, 0xea, 0x16, 0xef, 0x25,
  0xc6, 0x06, 0xd5, 0x2f, 0xf0, 0xf3, 0xe8, 0xf9, 0xd5, 0xe8, 0xf8, 0xf2,
  0x08, 0x36, 0xfd, 0xfa, 0x18, 0x0e, 0x1e, 0x16, 0x2a, 0x29, 0x1f, 0x1f,
  0xdf, 0x18, 0xe6, 0xdd, 0xef, 0x00, 0xef, 0xeb, 0xe6, 0x1b, 0x13, 0x0b,
  0xc1, 0xcc, 0xc5, 0x29, 0x00, 0xec, 0xea, 0xed, 0xe5, 0xe9, 0xe1, 0x13,
  0xd2, 0xf8, 0xed, 0x0e, 0xcc, 0xe9, 0xf7, 0xe6, 0xdc, 0xfe, 0xdf, 0xf5,
  0xb4, 0xee, 0xf9, 0x09, 0xb4, 0x08, 0x0c, 0xd5, 0xed, 0xdd, 0xe8, 0x28,
  0x05, 0xed, 0xfa, 0x1f, 0xe5, 0xec, 0xe7, 0xf1, 0xf3, 0x02, 0x0b, 0xe9,
  0xf1, 0xd0, 0xfd, 0xe6, 0xc9, 0x04, 0xcc, 0x1d, 0xc0, 0x0a, 0x19, 0x12,
  0xcd, 0x02, 0xe0, 0xe9, 0xed, 0x23, 0x02, 0xfb, 0xf2, 0xd6, 0x0a, 0x04,
  0xf5, 0x07, 0x0b, 0x25, 0xe9, 0x31, 0x0f, 0x12, 0xfc, 0x25, 0x0f, 0x10,
  0xd6, 0xf8, 0x04, 0xef, 0xe4, 0xe4, 0x09, 0xf9, 0x28, 0x00, 0x0d, 0x1c,
  0x11, 0x0a, 0x09, 0x06, 0x0a, 0x01, 0x07, 0xf0, 0xf6, 0xf5, 0x24, 0xd2,
  0xd7, 0x02, 0x0e, 0xe4, 0xe8, 0xe0, 0x22, 0xe7, 0xf3, 0x2e, 0xd7, 0xe5,
  0xf1, 0xfc, 0x0d, 0x2b, 0x00, 0x1b, 0xd4, 0xf1, 0x1e, 0x19, 0x0b, 0xd9,
  0xed, 0xf2, 0xf0, 0x2c, 0x3f, 0x06, 0xea, 0x04, 0xda, 0x05, 0xdd, 0x22,
  0x26, 0x0e, 0x13, 0x1a, 0x00, 0xd9, 0x0a, 0xd5, 0x2c, 0x2c, 0x21, 0xf9,
  0x07, 0x1c, 0x04, 0x00, 0x2e, 0xff, 0xff, 0xff, 0x04, 0x00, 0x00, 0x00,
  0x0c, 0x00, 0x00, 0x00, 0x4e, 0x02, 0x00, 0x00, 0xce, 0xff, 0xff, 0xff,
  0x3c, 0xfe, 0xff, 0xff, 0x46, 0xff, 0xff, 0xff, 0x04, 0x00, 0x00, 0x00,
  0x08, 0x00, 0x00, 0x00, 0xff, 0xff, 0xff, 0xff, 0xa0, 0x0f, 0x00, 0x00,
  0x5a, 0xff, 0xff, 0xff, 0x04, 0x00, 0x00, 0x00, 0x10, 0x00, 0x00, 0x00,
  0xff, 0xff, 0xff, 0xff, 0x31, 0x00, 0x00, 0x00, 0x28, 0x00, 0x00, 0x00,
  0x01, 0x00, 0x00, 0x00, 0xa0, 0xf9, 0xff, 0xff, 0xa4, 0xf9, 0xff, 0xff,
  0x0f, 0x00, 0x00, 0x00, 0x4d, 0x4c, 0x49, 0x52, 0x20, 0x43, 0x6f, 0x6e,
  0x76, 0x65, 0x72, 0x74, 0x65, 0x64, 0x2e, 0x00, 0x01, 0x00, 0x00, 0x00,
  0x14, 0x00, 0x00, 0x00, 0x00, 0x00, 0x0e, 0x00, 0x18, 0x00, 0x14, 0x00,
  0x10, 0x00, 0x0c, 0x00, 0x08, 0x00, 0x04, 0x00, 0x0e, 0x00, 0x00, 0x00,
  0x14, 0x00, 0x00, 0x00, 0x1c, 0x00, 0x00, 0x00, 0x44, 0x01, 0x00, 0x00,
  0x48, 0x01, 0x00, 0x00, 0x4c, 0x01, 0x00, 0x00, 0x04, 0x00, 0x00, 0x00,
  0x6d, 0x61, 0x69, 0x6e, 0x00, 0x00, 0x00, 0x00, 0x05, 0x00, 0x00, 0x00,
  0x08, 0x01, 0x00, 0x00, 0xac, 0x00, 0x00, 0x00, 0x78, 0x00, 0x00, 0x00,
  0x40, 0x00, 0x00, 0x00, 0x04, 0x00, 0x00, 0x00, 0x72, 0xff, 0xff, 0xff,
  0x1c, 0x00, 0x00, 0x00, 0x00, 0x00, 0x00, 0x09, 0x1c, 0x00, 0x00, 0x00,
  0x20, 0x00, 0x00, 0x00, 0x03, 0x00, 0x00, 0x00, 0x00, 0x00, 0x06, 0x00,
  0x08, 0x00, 0x04, 0x00, 0x06, 0x00, 0x00, 0x00, 0x00, 0x00, 0x80, 0x3f,
  0x01, 0x00, 0x00, 0x00, 0x0b, 0x00, 0x00, 0x00, 0x01, 0x00, 0x00, 0x00,
  0x0a, 0x00, 0x00, 0x00, 0xaa, 0xff, 0xff, 0xff, 0x14, 0x00, 0x00, 0x00,
  0x00, 0x00, 0x00, 0x08, 0x10, 0x00, 0x00, 0x00, 0x14, 0x00, 0x00, 0x00,
  0x02, 0x00, 0x00, 0x00, 0x60, 0xfa, 0xff, 0xff, 0x01, 0x00, 0x00, 0x00,
  0x0a, 0x00, 0x00, 0x00, 0x03, 0x00, 0x00, 0x00, 0x09, 0x00, 0x00, 0x00,
  0x04, 0x00, 0x00, 0x00, 0x03, 0x00, 0x00, 0x00, 0x82, 0xff, 0xff, 0xff,
  0x08, 0x00, 0x00, 0x00, 0x0c, 0x00, 0x00, 0x00, 0x01, 0x00, 0x00, 0x00,
  0x09, 0x00, 0x00, 0x00, 0x02, 0x00, 0x00, 0x00, 0x08, 0x00, 0x00, 0x00,
  0x02, 0x00, 0x00, 0x00, 0x00, 0x00, 0x0e, 0x00, 0x18, 0x00, 0x14, 0x00,
  0x10, 0x00, 0x0c, 0x00, 0x0b, 0x00, 0x04, 0x00, 0x0e, 0x00, 0x00, 0x00,
  0x20, 0x00, 0x00, 0x00, 0x00, 0x00, 0x00, 0x01, 0x28, 0x00, 0x00, 0x00,
  0x2c, 0x00, 0x00, 0x00, 0x01, 0x00, 0x00, 0x00, 0x0c, 0x00, 0x10, 0x00,
  0x00, 0x00, 0x0c, 0x00, 0x08, 0x00, 0x07, 0x00, 0x0c, 0x00, 0x00, 0x00,
  0x00, 0x00, 0x00, 0x01, 0x02, 0x00, 0x00, 0x00, 0x02, 0x00, 0x00, 0x00,
  0x01, 0x00, 0x00, 0x00, 0x08, 0x00, 0x00, 0x00, 0x03, 0x00, 0x00, 0x00,
  0x07, 0x00, 0x00, 0x00, 0x06, 0x00, 0x00, 0x00, 0x05, 0x00, 0x00, 0x00,
  0x00, 0x00, 0x0a, 0x00, 0x0c, 0x00, 0x00, 0x00, 0x08, 0x00, 0x04, 0x00,
  0x0a, 0x00, 0x00, 0x00, 0x08, 0x00, 0x00, 0x00, 0x0c, 0x00, 0x00, 0x00,
  0x01, 0x00, 0x00, 0x00, 0x07, 0x00, 0x00, 0x00, 0x02, 0x00, 0x00, 0x00,
  0x00, 0x00, 0x00, 0x00, 0x01, 0x00, 0x00, 0x00, 0x01, 0x00, 0x00, 0x00,
  0x0b, 0x00, 0x00, 0x00, 0x01, 0x00, 0x00, 0x00, 0x00, 0x00, 0x00, 0x00,
  0x0c, 0x00, 0x00, 0x00, 0x04, 0x05, 0x00, 0x00, 0xa8, 0x04, 0x00, 0x00,
  0x68, 0x04, 0x00, 0x00, 0xec, 0x03, 0x00, 0x00, 0x70, 0x03, 0x00, 0x00,
  0xbc, 0x02, 0x00, 0x00, 0xf8, 0x01, 0x00, 0x00, 0x94, 0x01, 0x00, 0x00,
  0x28, 0x01, 0x00, 0x00, 0xcc, 0x00, 0x00, 0x00, 0x68, 0x00, 0x00, 0x00,
  0x04, 0x00, 0x00, 0x00, 0x42, 0xfb, 0xff, 0xff, 0x00, 0x00, 0x00, 0x01,
  0x14, 0x00, 0x00, 0x00, 0x34, 0x00, 0x00, 0x00, 0x0c, 0x00, 0x00, 0x00,
  0x00, 0x00, 0x00, 0x09, 0x3c, 0x00, 0x00, 0x00, 0x2c, 0xfb, 0xff, 0xff,
  0x08, 0x00, 0x00, 0x00, 0x14, 0x00, 0x00, 0x00, 0x01, 0x00, 0x00, 0x00,
  0x80, 0xff, 0xff, 0xff, 0xff, 0xff, 0xff, 0xff, 0x00, 0x00, 0x00, 0x00,
  0x01, 0x00, 0x00, 0x00, 0x00, 0x00, 0x80, 0x3b, 0x0e, 0x00, 0x00, 0x00,
  0x6c, 0x61, 0x62, 0x65, 0x6c, 0x73, 0x5f, 0x73, 0x6f, 0x66, 0x74, 0x6d,
  0x61, 0x78, 0x00, 0x00, 0x02, 0x00, 0x00, 0x00, 0x01, 0x00, 0x00, 0x00,
  0x03, 0x00, 0x00, 0x00, 0xa2, 0xfb, 0xff, 0xff, 0x00, 0x00, 0x00, 0x01,
  0x14, 0x00, 0x00, 0x00, 0x34, 0x00, 0x00, 0x00, 0x0b, 0x00, 0x00, 0x00,
  0x00, 0x00, 0x00, 0x09, 0x3c, 0x00, 0x00, 0x00, 0x8c, 0xfb, 0xff, 0xff,
  0x08, 0x00, 0x00, 0x00, 0x14, 0x00, 0x00, 0x00, 0x01, 0x00, 0x00, 0x00,
  0xfc, 0xff, 0xff, 0xff, 0xff, 0xff, 0xff, 0xff, 0x00, 0x00, 0x00, 0x00,
  0x01, 0x00, 0x00, 0x00, 0x6e, 0xa5, 0xbb, 0x3d, 0x0c, 0x00, 0x00, 0x00,
  0x4d, 0x61, 0x74, 0x4d, 0x75, 0x6c, 0x3b, 0x61, 0x64, 0x64, 0x5f, 0x31,
  0x00, 0x00, 0x00, 0x00, 0x02, 0x00, 0x00, 0x00, 0x01, 0x00, 0x00, 0x00,
  0x03, 0x00, 0x00, 0x00, 0x02, 0xfc, 0xff, 0xff, 0x00, 0x00, 0x00, 0x01,
  0x14, 0x00, 0x00, 0x00, 0x30, 0x00, 0x00, 0x00, 0x0a, 0x00, 0x00, 0x00,
  0x00, 0x00, 0x00, 0x09, 0x34, 0x00, 0x00, 0x00, 0xec, 0xfb, 0xff, 0xff,
  0x08, 0x00, 0x00, 0x00, 0x10, 0x00, 0x00, 0x00, 0x01, 0x00, 0x00, 0x00,
  0x80, 0xff, 0xff, 0xff, 0xff, 0xff, 0xff, 0xff, 0x01, 0x00, 0x00, 0x00,
  0x42, 0x06, 0xb3, 0x3d, 0x09, 0x00, 0x00, 0x00, 0x52, 0x65, 0x73, 0x68,
  0x61, 0x70, 0x65, 0x5f, 0x33, 0x00, 0x00, 0x00, 0x02, 0x00, 0x00, 0x00,
  0x01, 0x00, 0x00, 0x00, 0xa0, 0x0f, 0x00, 0x00, 0x5a, 0xfc, 0xff, 0xff,
  0x00, 0x00, 0x00, 0x01, 0x14, 0x00, 0x00, 0x00, 0x34, 0x00, 0x00, 0x00,
  0x09, 0x00, 0x00, 0x00, 0x00, 0x00, 0x00, 0x09, 0x3c, 0x00, 0x00, 0x00,
  0x44, 0xfc, 0xff, 0xff, 0x08, 0x00, 0x00, 0x00, 0x14, 0x00, 0x00, 0x00,
  0x01, 0x00, 0x00, 0x00, 0x80, 0xff, 0xff, 0xff, 0xff, 0xff, 0xff, 0xff,
  0x00, 0x00, 0x00, 0x00, 0x01, 0x00, 0x00, 0x00, 0x42, 0x06, 0xb3, 0x3d,
  0x0f, 0x00, 0x00, 0x00, 0x52, 0x65, 0x6c, 0x75, 0x3b, 0x61, 0x64, 0x64,
  0x3b, 0x43, 0x6f, 0x6e, 0x76, 0x32, 0x44, 0x00, 0x04, 0x00, 0x00, 0x00,
  0x01, 0x00, 0x00, 0x00, 0x19, 0x00, 0x00, 0x00, 0x14, 0x00, 0x00, 0x00,
  0x08, 0x00, 0x00, 0x00, 0xc2, 0xfc, 0xff, 0xff, 0x00, 0x00, 0x00, 0x01,
  0x14, 0x00, 0x00, 0x00, 0x30, 0x00, 0x00, 0x00, 0x08, 0x00, 0x00, 0x00,
  0x00, 0x00, 0x00, 0x09, 0x34, 0x00, 0x00, 0x00, 0xac, 0xfc, 0xff, 0xff,
  0x08, 0x00, 0x00, 0x00, 0x10, 0x00, 0x00, 0x00, 0x01, 0x00, 0x00, 0x00,
  0x80, 0xff, 0xff, 0xff, 0xff, 0xff, 0xff, 0xff, 0x01, 0x00, 0x00, 0x00,
  0x00, 0x00, 0xd0, 0x3d, 0x09, 0x00, 0x00, 0x00, 0x52, 0x65, 0x73, 0x68,
  0x61, 0x70, 0x65, 0x5f, 0x32, 0x00, 0x00, 0x00, 0x04, 0x00, 0x00, 0x00,
  0x01, 0x00, 0x00, 0x00, 0x31, 0x00, 0x00, 0x00, 0x28, 0x00, 0x00, 0x00,
  0x01, 0x00, 0x00, 0x00, 0x22, 0xfd, 0xff, 0xff, 0x00, 0x00, 0x00, 0x01,
  0x14, 0x00, 0x00, 0x00, 0x88, 0x00, 0x00, 0x00, 0x07, 0x00, 0x00, 0x00,
  0x00, 0x00, 0x00, 0x09, 0x94, 0x00, 0x00, 0x00, 0x0c, 0xfd, 0xff, 0xff,
  0x08, 0x00, 0x00, 0x00, 0x4c, 0x00, 0x00, 0x00, 0x08, 0x00, 0x00, 0x00,
  0x00, 0x00, 0x00, 0x00, 0x00, 0x00, 0x00, 0x00, 0x00, 0x00, 0x00, 0x00,
  0x00, 0x00, 0x00, 0x00, 0x00, 0x00, 0x00, 0x00, 0x00, 0x00, 0x00, 0x00,
  0x00, 0x00, 0x00, 0x00, 0x00, 0x00, 0x00, 0x00, 0x00, 0x00, 0x00, 0x00,
  0x00, 0x00, 0x00, 0x00, 0x00, 0x00, 0x00, 0x00, 0x00, 0x00, 0x00, 0x00,
  0x00, 0x00, 0x00, 0x00, 0x00, 0x00, 0x00, 0x00, 0x00, 0x00, 0x00, 0x00,
  0x00, 0x00, 0x00, 0x00, 0x00, 0x00, 0x00, 0x00, 0x08, 0x00, 0x00, 0x00,
  0xef, 0x11, 0x2b, 0x3a, 0x89, 0xf0, 0xd9, 0x39, 0x2d, 0xff, 0x7c, 0x39,
  0xf7, 0xb8, 0x13, 0x3a, 0xd7, 0x61, 0x28, 0x3a, 0xe1, 0xf0, 0x85, 0x39,
  0x4e, 0x7f, 0xdc, 0x39, 0x1f, 0xf3, 0xdf, 0x39, 0x12, 0x00, 0x00, 0x00,
  0x74, 0x66, 0x6c, 0x2e, 0x70, 0x73, 0x65, 0x75, 0x64, 0x6f, 0x5f, 0x71,
  0x63, 0x6f, 0x6e, 0x73, 0x74, 0x33, 0x00, 0x00, 0x04, 0x00, 0x00, 0x00,
  0x08, 0x00, 0x00, 0x00, 0x0a, 0x00, 0x00, 0x00, 0x08, 0x00, 0x00, 0x00,
  0x01, 0x00, 0x00, 0x00, 0xe2, 0xfd, 0xff, 0xff, 0x00, 0x00, 0x00, 0x01,
  0x14, 0x00, 0x00, 0x00, 0x84, 0x00, 0x00, 0x00, 0x06, 0x00, 0x00, 0x00,
  0x00, 0x00, 0x00, 0x02, 0x90, 0x00, 0x00, 0x00, 0xcc, 0xfd, 0xff, 0xff,
  0x08, 0x00, 0x00, 0x00, 0x48, 0x00, 0x00, 0x00, 0x08, 0x00, 0x00, 0x00,
  0x00, 0x00, 0x00, 0x00, 0x00, 0x00, 0x00, 0x00, 0x00, 0x00, 0x00, 0x00,
  0x00, 0x00, 0x00, 0x00, 0x00, 0x00, 0x00, 0x00, 0x00, 0x00, 0x00, 0x00,
  0x00, 0x00, 0x00, 0x00, 0x00, 0x00, 0x00, 0x00, 0x00, 0x00, 0x00, 0x00,
  0x00, 0x00, 0x00, 0x00, 0x00, 0x00, 0x00, 0x00, 0x00, 0x00, 0x00, 0x00,
  0x00, 0x00, 0x00, 0x00, 0x00, 0x00, 0x00, 0x00, 0x00, 0x00, 0x00, 0x00,
  0x00, 0x00, 0x00, 0x00, 0x08, 0x00, 0x00, 0x00, 0x92, 0xfe, 0x8a, 0x38,
  0x6f, 0x13, 0x31, 0x38, 0x55, 0x8f, 0xcd, 0x37, 0x91, 0x0c, 0x70, 0x38,
  0x7f, 0xcf, 0x88, 0x38, 0x6e, 0xa7, 0xd9, 0x37, 0x6f, 0x27, 0x33, 0x38,
  0x89, 0xf5, 0x35, 0x38, 0x12, 0x00, 0x00, 0x00, 0x74, 0x66, 0x6c, 0x2e,
  0x70, 0x73, 0x65, 0x75, 0x64, 0x6f, 0x5f, 0x71, 0x63, 0x6f, 0x6e, 0x73,
  0x74, 0x32, 0x00, 0x00, 0x01, 0x00, 0x00, 0x00, 0x08, 0x00, 0x00, 0x00,
  0x92, 0xfe, 0xff, 0xff, 0x00, 0x00, 0x00, 0x01, 0x14, 0x00, 0x00, 0x00,
  0x48, 0x00, 0x00, 0x00, 0x05, 0x00, 0x00, 0x00, 0x00, 0x00, 0x00, 0x09,
  0x54, 0x00, 0x00, 0x00, 0x7c, 0xfe, 0xff, 0xff, 0x08, 0x00, 0x00, 0x00,
  0x20, 0x00, 0x00, 0x00, 0x03, 0x00, 0x00, 0x00, 0x00, 0x00, 0x00, 0x00,
  0x00, 0x00, 0x00, 0x00, 0x00, 0x00, 0x00, 0x00, 0x00, 0x00, 0x00, 0x00,
  0x00, 0x00, 0x00, 0x00, 0x00, 0x00, 0x00, 0x00, 0x03, 0x00, 0x00, 0x00,
  0x49, 0xd8, 0xaa, 0x39, 0x49, 0xa4, 0xd9, 0x39, 0xa1, 0xdf, 0xc6, 0x39,
  0x12, 0x00, 0x00, 0x00, 0x74, 0x66, 0x6c, 0x2e, 0x70, 0x73, 0x65, 0x75,
  0x64, 0x6f, 0x5f, 0x71, 0x63, 0x6f, 0x6e, 0x73, 0x74, 0x31, 0x00, 0x00,
  0x02, 0x00, 0x00, 0x00, 0x03, 0x00, 0x00, 0x00, 0xa0, 0x0f, 0x00, 0x00,
  0x0a, 0xff, 0xff, 0xff, 0x00, 0x00, 0x00, 0x01, 0x14, 0x00, 0x00, 0x00,
  0x4c, 0x00, 0x00, 0x00, 0x04, 0x00, 0x00, 0x00, 0x00, 0x00, 0x00, 0x02,
  0x58, 0x00, 0x00, 0x00, 0xf4, 0xfe, 0xff, 0xff, 0x08, 0x00, 0x00, 0x00,
  0x24, 0x00, 0x00, 0x00, 0x03, 0x00, 0x00, 0x00, 0x00, 0x00, 0x00, 0x00,
  0x00, 0x00, 0x00, 0x00, 0x00, 0x00, 0x00, 0x00, 0x00, 0x00, 0x00, 0x00,
  0x00, 0x00, 0x00, 0x00, 0x00, 0x00, 0x00, 0x00, 0x00, 0x00, 0x00, 0x00,
  0x03, 0x00, 0x00, 0x00, 0xd0, 0xf2, 0xee, 0x37, 0x31, 0x33, 0x18, 0x38,
  0x3a, 0x13, 0x0b, 0x38, 0x11, 0x00, 0x00, 0x00, 0x74, 0x66, 0x6c, 0x2e,
  0x70, 0x73, 0x65, 0x75, 0x64, 0x6f, 0x5f, 0x71, 0x63, 0x6f, 0x6e, 0x73,
  0x74, 0x00, 0x00, 0x00, 0x01, 0x00, 0x00, 0x00, 0x03, 0x00, 0x00, 0x00,
  0x82, 0xff, 0xff, 0xff, 0x00, 0x00, 0x00, 0x01, 0x14, 0x00, 0x00, 0x00,
  0x14, 0x00, 0x00, 0x00, 0x03, 0x00, 0x00, 0x00, 0x00, 0x00, 0x00, 0x02,
  0x1c, 0x00, 0x00, 0x00, 0xc4, 0xff, 0xff, 0xff, 0x0f, 0x00, 0x00, 0x00,
  0x61, 0x72, 0x69, 0x74, 0x68, 0x2e, 0x63, 0x6f, 0x6e, 0x73, 0x74, 0x61,
  0x6e, 0x74, 0x31, 0x00, 0x01, 0x00, 0x00, 0x00, 0x02, 0x00, 0x00, 0x00,
  0xbe, 0xff, 0xff, 0xff, 0x00, 0x00, 0x00, 0x01, 0x18, 0x00, 0x00, 0x00,
  0x18, 0x00, 0x00, 0x00, 0x02, 0x00, 0x00, 0x00, 0x00, 0x00, 0x00, 0x02,
  0x20, 0x00, 0x00, 0x00, 0x04, 0x00, 0x04, 0x00, 0x04, 0x00, 0x00, 0x00,
  0x0e, 0x00, 0x00, 0x00, 0x61, 0x72, 0x69, 0x74, 0x68, 0x2e, 0x63, 0x6f,
  0x6e, 0x73, 0x74, 0x61, 0x6e, 0x74, 0x00, 0x00, 0x01, 0x00, 0x00, 0x00,
  0x04, 0x00, 0x00, 0x00, 0x00, 0x00, 0x16, 0x00, 0x1c, 0x00, 0x18, 0x00,
  0x17, 0x00, 0x10, 0x00, 0x0c, 0x00, 0x08, 0x00, 0x00, 0x00, 0x00, 0x00,
  0x00, 0x00, 0x07, 0x00, 0x16, 0x00, 0x00, 0x00, 0x00, 0x00, 0x00, 0x01,
  0x20, 0x00, 0x00, 0x00, 0x40, 0x00, 0x00, 0x00, 0x01, 0x00, 0x00, 0x00,
  0x00, 0x00, 0x00, 0x09, 0x44, 0x00, 0x00, 0x00, 0x0c, 0x00, 0x0c, 0x00,
  0x00, 0x00, 0x00, 0x00, 0x08, 0x00, 0x04, 0x00, 0x0c, 0x00, 0x00, 0x00,
  0x08, 0x00, 0x00, 0x00, 0x14, 0x00, 0x00, 0x00, 0x01, 0x00, 0x00, 0x00,
  0x80, 0xff, 0xff, 0xff, 0xff, 0xff, 0xff, 0xff, 0x00, 0x00, 0x00, 0x00,
  0x01, 0x00, 0x00, 0x00, 0x00, 0x00, 0xd0, 0x3d, 0x09, 0x00, 0x00, 0x00,
  0x52, 0x65, 0x73, 0x68, 0x61, 0x70, 0x65, 0x5f, 0x31, 0x00, 0x00, 0x00,
  0x02, 0x00, 0x00, 0x00, 0x01, 0x00, 0x00, 0x00, 0xa8, 0x07, 0x00, 0x00,
  0x04, 0x00, 0x00, 0x00, 0x58, 0x00, 0x00, 0x00, 0x38, 0x00, 0x00, 0x00,
  0x18, 0x00, 0x00, 0x00, 0x04, 0x00, 0x00, 0x00, 0xe0, 0xff, 0xff, 0xff,
  0x19, 0x00, 0x00, 0x00, 0x02, 0x00, 0x00, 0x00, 0x00, 0x00, 0x00, 0x19,
  0xf0, 0xff, 0xff, 0xff, 0x09, 0x00, 0x00, 0x00, 0x04, 0x00, 0x00, 0x00,
  0x00, 0x00, 0x00, 0x09, 0x0c, 0x00, 0x10, 0x00, 0x0f, 0x00, 0x00, 0x00,
  0x08, 0x00, 0x04, 0x00, 0x0c, 0x00, 0x00, 0x00, 0x03, 0x00, 0x00, 0x00,
  0x03, 0x00, 0x00, 0x00, 0x00, 0x00, 0x00, 0x03, 0x0c, 0x00, 0x0c, 0x00,
  0x0b, 0x00, 0x00, 0x00, 0x00, 0x00, 0x04, 0x00, 0x0c, 0x00, 0x00, 0x00,
  0x16, 0x00, 0x00, 0x00, 0x00, 0x00, 0x00, 0x16
};
unsigned int g_model_len = 15128;
